{
  "version": "1.0",
  "truncation": null,
  "padding": null,
  "added_tokens": [
    {
      "id": 0,
      "content": "[UNK]",
      "single_word": false,
      "lstrip": false,
      "rstrip": false,
      "normalized": false,
      "special": true
    },
    {
      "id": 1,
      "content": "[PAD]",
      "single_word": false,
      "lstrip": false,
      "rstrip": false,
      "normalized": false,
      "special": true
    },
    {
      "id": 2,
      "content": "[SOS]",
      "single_word": false,
      "lstrip": false,
      "rstrip": false,
      "normalized": false,
      "special": true
    },
    {
      "id": 3,
      "content": "[EOS]",
      "single_word": false,
      "lstrip": false,
      "rstrip": false,
      "normalized": false,
      "special": true
    }
  ],
  "normalizer": null,
  "pre_tokenizer": {
    "type": "Whitespace"
  },
  "post_processor": null,
  "decoder": null,
  "model": {
    "type": "BPE",
    "dropout": null,
    "unk_token": "[UNK]",
    "continuing_subword_prefix": null,
    "end_of_word_suffix": null,
    "fuse_unk": false,
    "byte_fallback": false,
    "ignore_merges": false,
    "vocab": {
      "[UNK]": 0,
      "[PAD]": 1,
      "[SOS]": 2,
      "[EOS]": 3,
      "\u0010": 4,
      "!": 5,
      "\"": 6,
      "#": 7,
      "$": 8,
      "%": 9,
      "&": 10,
      "'": 11,
      "(": 12,
      ")": 13,
      "*": 14,
      "+": 15,
      ",": 16,
      "-": 17,
      ".": 18,
      "/": 19,
      "0": 20,
      "1": 21,
      "2": 22,
      "3": 23,
      "4": 24,
      "5": 25,
      "6": 26,
      "7": 27,
      "8": 28,
      "9": 29,
      ":": 30,
      ";": 31,
      "<": 32,
      "=": 33,
      ">": 34,
      "?": 35,
      "@": 36,
      "A": 37,
      "B": 38,
      "C": 39,
      "D": 40,
      "E": 41,
      "F": 42,
      "G": 43,
      "H": 44,
      "I": 45,
      "J": 46,
      "K": 47,
      "L": 48,
      "M": 49,
      "N": 50,
      "O": 51,
      "P": 52,
      "Q": 53,
      "R": 54,
      "S": 55,
      "T": 56,
      "U": 57,
      "V": 58,
      "W": 59,
      "X": 60,
      "Y": 61,
      "Z": 62,
      "[": 63,
      "\\": 64,
      "]": 65,
      "^": 66,
      "_": 67,
      "`": 68,
      "a": 69,
      "b": 70,
      "c": 71,
      "d": 72,
      "e": 73,
      "f": 74,
      "g": 75,
      "h": 76,
      "i": 77,
      "j": 78,
      "k": 79,
      "l": 80,
      "m": 81,
      "n": 82,
      "o": 83,
      "p": 84,
      "q": 85,
      "r": 86,
      "s": 87,
      "t": 88,
      "u": 89,
      "v": 90,
      "w": 91,
      "x": 92,
      "y": 93,
      "z": 94,
      "{": 95,
      "|": 96,
      "}": 97,
      "~": 98,
      "": 99,
      "": 100,
      "": 101,
      "": 102,
      "": 103,
      "": 104,
      "": 105,
      "": 106,
      "": 107,
      "": 108,
      "": 109,
      "": 110,
      "": 111,
      "": 112,
      "": 113,
      "": 114,
      "": 115,
      "": 116,
      "": 117,
      "": 118,
      "": 119,
      "": 120,
      "": 121,
      "": 122,
      "": 123,
      "¡": 124,
      "¢": 125,
      "£": 126,
      "¤": 127,
      "¥": 128,
      "¦": 129,
      "§": 130,
      "¨": 131,
      "©": 132,
      "ª": 133,
      "«": 134,
      "¬": 135,
      "­": 136,
      "®": 137,
      "¯": 138,
      "°": 139,
      "±": 140,
      "²": 141,
      "³": 142,
      "´": 143,
      "µ": 144,
      "¶": 145,
      "·": 146,
      "¸": 147,
      "¹": 148,
      "º": 149,
      "»": 150,
      "¼": 151,
      "½": 152,
      "¾": 153,
      "¿": 154,
      "À": 155,
      "Á": 156,
      "Â": 157,
      "Ã": 158,
      "Ä": 159,
      "Å": 160,
      "Æ": 161,
      "Ç": 162,
      "È": 163,
      "É": 164,
      "Ê": 165,
      "Ë": 166,
      "Ì": 167,
      "Í": 168,
      "Î": 169,
      "Ï": 170,
      "Ð": 171,
      "Ñ": 172,
      "Ò": 173,
      "Ó": 174,
      "Ô": 175,
      "Õ": 176,
      "Ö": 177,
      "×": 178,
      "Ø": 179,
      "Ú": 180,
      "Û": 181,
      "Ü": 182,
      "Ý": 183,
      "Þ": 184,
      "ß": 185,
      "à": 186,
      "á": 187,
      "â": 188,
      "ã": 189,
      "ä": 190,
      "å": 191,
      "æ": 192,
      "ç": 193,
      "è": 194,
      "é": 195,
      "ê": 196,
      "ë": 197,
      "ì": 198,
      "í": 199,
      "î": 200,
      "ï": 201,
      "ð": 202,
      "ñ": 203,
      "ò": 204,
      "ó": 205,
      "ô": 206,
      "õ": 207,
      "ö": 208,
      "÷": 209,
      "ø": 210,
      "ù": 211,
      "ú": 212,
      "û": 213,
      "ü": 214,
      "ý": 215,
      "þ": 216,
      "ÿ": 217,
      "Ā": 218,
      "ā": 219,
      "Ă": 220,
      "ă": 221,
      "ą": 222,
      "Ć": 223,
      "ć": 224,
      "ĉ": 225,
      "Č": 226,
      "č": 227,
      "Đ": 228,
      "đ": 229,
      "Ē": 230,
      "ē": 231,
      "ė": 232,
      "ę": 233,
      "ě": 234,
      "ĝ": 235,
      "ğ": 236,
      "Ġ": 237,
      "Ħ": 238,
      "ħ": 239,
      "ĩ": 240,
      "Ī": 241,
      "ī": 242,
      "ĭ": 243,
      "İ": 244,
      "ı": 245,
      "ķ": 246,
      "ĺ": 247,
      "ļ": 248,
      "ľ": 249,
      "Ŀ": 250,
      "Ł": 251,
      "ł": 252,
      "ń": 253,
      "ņ": 254,
      "Ň": 255,
      "ň": 256,
      "ŋ": 257,
      "Ō": 258,
      "ō": 259,
      "ŏ": 260,
      "Ő": 261,
      "ő": 262,
      "Œ": 263,
      "œ": 264,
      "ŕ": 265,
      "ř": 266,
      "Ś": 267,
      "ś": 268,
      "ŝ": 269,
      "Ş": 270,
      "ş": 271,
      "Š": 272,
      "š": 273,
      "Ţ": 274,
      "ţ": 275,
      "ũ": 276,
      "Ū": 277,
      "ū": 278,
      "Ŭ": 279,
      "ŭ": 280,
      "ů": 281,
      "ű": 282,
      "ų": 283,
      "ŵ": 284,
      "Ÿ": 285,
      "ź": 286,
      "Ż": 287,
      "ż": 288,
      "Ž": 289,
      "ž": 290,
      "ƒ": 291,
      "ơ": 292,
      "ƫ": 293,
      "ƭ": 294,
      "ư": 295,
      "ƿ": 296,
      "ǀ": 297,
      "ǁ": 298,
      "ǂ": 299,
      "ǃ": 300,
      "ǎ": 301,
      "ǐ": 302,
      "ǒ": 303,
      "ǔ": 304,
      "ǚ": 305,
      "ǜ": 306,
      "ǫ": 307,
      "Ȃ": 308,
      "Ș": 309,
      "ș": 310,
      "ț": 311,
      "ɐ": 312,
      "ɑ": 313,
      "ɒ": 314,
      "ɓ": 315,
      "ɔ": 316,
      "ɕ": 317,
      "ɖ": 318,
      "ə": 319,
      "ɛ": 320,
      "ɜ": 321,
      "ɡ": 322,
      "ɢ": 323,
      "ɣ": 324,
      "ɥ": 325,
      "ɦ": 326,
      "ɨ": 327,
      "ɪ": 328,
      "ɫ": 329,
      "ɭ": 330,
      "ɯ": 331,
      "ɲ": 332,
      "ɵ": 333,
      "ɽ": 334,
      "ɾ": 335,
      "ʁ": 336,
      "ʂ": 337,
      "ʃ": 338,
      "ʊ": 339,
      "ʋ": 340,
      "ʌ": 341,
      "ʎ": 342,
      "ʐ": 343,
      "ʒ": 344,
      "ʔ": 345,
      "ʘ": 346,
      "ʝ": 347,
      "ʰ": 348,
      "ʱ": 349,
      "ʲ": 350,
      "ʷ": 351,
      "ʺ": 352,
      "ʻ": 353,
      "ʼ": 354,
      "ʾ": 355,
      "ʿ": 356,
      "˃": 357,
      "ˆ": 358,
      "ˈ": 359,
      "ˌ": 360,
      "ː": 361,
      "˘": 362,
      "˚": 363,
      "˛": 364,
      "˜": 365,
      "ˤ": 366,
      "˧": 367,
      "˨": 368,
      "̀": 369,
      "́": 370,
      "̂": 371,
      "̃": 372,
      "̄": 373,
      "̅": 374,
      "̈": 375,
      "̊": 376,
      "̌": 377,
      "̍": 378,
      "̞": 379,
      "̠": 380,
      "̣": 381,
      "̤": 382,
      "̥": 383,
      "̧": 384,
      "̩": 385,
      "̪": 386,
      "̬": 387,
      "̯": 388,
      "̶": 389,
      "̷": 390,
      "̸": 391,
      "͈": 392,
      "͡": 393,
      "Ό": 394,
      "Α": 395,
      "Β": 396,
      "Γ": 397,
      "Δ": 398,
      "Ε": 399,
      "Η": 400,
      "Θ": 401,
      "Ι": 402,
      "Κ": 403,
      "Λ": 404,
      "Μ": 405,
      "Ν": 406,
      "Ο": 407,
      "Π": 408,
      "Ρ": 409,
      "Σ": 410,
      "Τ": 411,
      "Υ": 412,
      "Φ": 413,
      "Χ": 414,
      "Ψ": 415,
      "Ω": 416,
      "ά": 417,
      "έ": 418,
      "ή": 419,
      "ί": 420,
      "α": 421,
      "β": 422,
      "γ": 423,
      "δ": 424,
      "ε": 425,
      "ζ": 426,
      "η": 427,
      "θ": 428,
      "ι": 429,
      "κ": 430,
      "λ": 431,
      "μ": 432,
      "ν": 433,
      "ξ": 434,
      "ο": 435,
      "π": 436,
      "ρ": 437,
      "ς": 438,
      "σ": 439,
      "τ": 440,
      "υ": 441,
      "φ": 442,
      "χ": 443,
      "ψ": 444,
      "ω": 445,
      "ό": 446,
      "ύ": 447,
      "ώ": 448,
      "ϕ": 449,
      "ϩ": 450,
      "ϫ": 451,
      "ϭ": 452,
      "Ϯ": 453,
      "ϰ": 454,
      "Ϸ": 455,
      "Ͻ": 456,
      "Ͼ": 457,
      "Ђ": 458,
      "Є": 459,
      "І": 460,
      "Ј": 461,
      "Њ": 462,
      "А": 463,
      "Б": 464,
      "В": 465,
      "Г": 466,
      "Д": 467,
      "Е": 468,
      "Ж": 469,
      "З": 470,
      "И": 471,
      "Й": 472,
      "К": 473,
      "Л": 474,
      "М": 475,
      "Н": 476,
      "О": 477,
      "П": 478,
      "Р": 479,
      "С": 480,
      "Т": 481,
      "У": 482,
      "Ф": 483,
      "Х": 484,
      "Ц": 485,
      "Ч": 486,
      "Ш": 487,
      "Э": 488,
      "Я": 489,
      "а": 490,
      "б": 491,
      "в": 492,
      "г": 493,
      "д": 494,
      "е": 495,
      "ж": 496,
      "з": 497,
      "и": 498,
      "й": 499,
      "к": 500,
      "л": 501,
      "м": 502,
      "н": 503,
      "о": 504,
      "п": 505,
      "р": 506,
      "с": 507,
      "т": 508,
      "у": 509,
      "ф": 510,
      "х": 511,
      "ц": 512,
      "ч": 513,
      "ш": 514,
      "щ": 515,
      "ъ": 516,
      "ы": 517,
      "ь": 518,
      "э": 519,
      "ю": 520,
      "я": 521,
      "ё": 522,
      "є": 523,
      "і": 524,
      "ї": 525,
      "ј": 526,
      "ѣ": 527,
      "ѫ": 528,
      "ѭ": 529,
      "ѳ": 530,
      "ѵ": 531,
      "ґ": 532,
      "ә": 533,
      "ө": 534,
      "ԑ": 535,
      "Ա": 536,
      "Գ": 537,
      "Թ": 538,
      "Հ": 539,
      "Ն": 540,
      "Ս": 541,
      "Օ": 542,
      "ա": 543,
      "բ": 544,
      "գ": 545,
      "ե": 546,
      "ժ": 547,
      "ի": 548,
      "կ": 549,
      "հ": 550,
      "յ": 551,
      "ն": 552,
      "ո": 553,
      "չ": 554,
      "ջ": 555,
      "ս": 556,
      "վ": 557,
      "տ": 558,
      "ր": 559,
      "ց": 560,
      "ւ": 561,
      "և": 562,
      "֣": 563,
      "ְ": 564,
      "ִ": 565,
      "ֵ": 566,
      "ֶ": 567,
      "ַ": 568,
      "ָ": 569,
      "ֹ": 570,
      "ּ": 571,
      "ֽ": 572,
      "ֿ": 573,
      "ׁ": 574,
      "א": 575,
      "ב": 576,
      "ג": 577,
      "ד": 578,
      "ה": 579,
      "ו": 580,
      "ז": 581,
      "ח": 582,
      "ט": 583,
      "י": 584,
      "ך": 585,
      "כ": 586,
      "ל": 587,
      "ם": 588,
      "מ": 589,
      "ן": 590,
      "נ": 591,
      "ס": 592,
      "ע": 593,
      "פ": 594,
      "ץ": 595,
      "צ": 596,
      "ק": 597,
      "ר": 598,
      "ש": 599,
      "ת": 600,
      "ײ": 601,
      "؉": 602,
      "؊": 603,
      "؍": 604,
      "؎": 605,
      "آ": 606,
      "أ": 607,
      "إ": 608,
      "ئ": 609,
      "ا": 610,
      "ب": 611,
      "ة": 612,
      "ت": 613,
      "ث": 614,
      "ج": 615,
      "ح": 616,
      "خ": 617,
      "د": 618,
      "ر": 619,
      "ز": 620,
      "س": 621,
      "ش": 622,
      "ص": 623,
      "ض": 624,
      "ط": 625,
      "ظ": 626,
      "ع": 627,
      "غ": 628,
      "ـ": 629,
      "ف": 630,
      "ق": 631,
      "ك": 632,
      "ل": 633,
      "م": 634,
      "ن": 635,
      "ه": 636,
      "و": 637,
      "ى": 638,
      "ي": 639,
      "ٍ": 640,
      "َ": 641,
      "ُ": 642,
      "ِ": 643,
      "ّ": 644,
      "ْ": 645,
      "٦": 646,
      "ٹ": 647,
      "پ": 648,
      "چ": 649,
      "ڌ": 650,
      "ژ": 651,
      "ک": 652,
      "گ": 653,
      "ڻ": 654,
      "ھ": 655,
      "ہ": 656,
      "ی": 657,
      "ە": 658,
      "۝": 659,
      "۪": 660,
      "۱": 661,
      "۷": 662,
      "۹": 663,
      "ܓ": 664,
      "ܕ": 665,
      "ܡ": 666,
      "ܢ": 667,
      "ܣ": 668,
      "ं": 669,
      "ः": 670,
      "अ": 671,
      "आ": 672,
      "ई": 673,
      "उ": 674,
      "क": 675,
      "ख": 676,
      "ग": 677,
      "घ": 678,
      "ङ": 679,
      "च": 680,
      "ज": 681,
      "ट": 682,
      "ड": 683,
      "ण": 684,
      "त": 685,
      "थ": 686,
      "द": 687,
      "ध": 688,
      "न": 689,
      "प": 690,
      "ब": 691,
      "भ": 692,
      "म": 693,
      "य": 694,
      "र": 695,
      "ल": 696,
      "व": 697,
      "श": 698,
      "ष": 699,
      "स": 700,
      "ह": 701,
      "ा": 702,
      "ि": 703,
      "ी": 704,
      "ु": 705,
      "ू": 706,
      "ृ": 707,
      "े": 708,
      "ॊ": 709,
      "ो": 710,
      "ौ": 711,
      "्": 712,
      "আ": 713,
      "ই": 714,
      "উ": 715,
      "ও": 716,
      "জ": 717,
      "ড": 718,
      "ন": 719,
      "প": 720,
      "ব": 721,
      "ম": 722,
      "য": 723,
      "র": 724,
      "ল": 725,
      "স": 726,
      "়": 727,
      "া": 728,
      "ো": 729,
      "্": 730,
      "ਂ": 731,
      "ਆ": 732,
      "ਇ": 733,
      "ਕ": 734,
      "ਗ": 735,
      "ਚ": 736,
      "ਜ": 737,
      "ਟ": 738,
      "ਡ": 739,
      "ਤ": 740,
      "ਦ": 741,
      "ਧ": 742,
      "ਨ": 743,
      "ਪ": 744,
      "ਬ": 745,
      "ਭ": 746,
      "ਮ": 747,
      "ਰ": 748,
      "ਲ": 749,
      "ਵ": 750,
      "ਸ": 751,
      "ਹ": 752,
      "਼": 753,
      "ਾ": 754,
      "ਿ": 755,
      "ੀ": 756,
      "ੇ": 757,
      "ੋ": 758,
      "ੜ": 759,
      "ੰ": 760,
      "ੱ": 761,
      "இ": 762,
      "க": 763,
      "ங": 764,
      "ஜ": 765,
      "ட": 766,
      "த": 767,
      "ன": 768,
      "ப": 769,
      "ம": 770,
      "ர": 771,
      "ல": 772,
      "ஸ": 773,
      "ா": 774,
      "ி": 775,
      "ு": 776,
      "ெ": 777,
      "ே": 778,
      "ை": 779,
      "ோ": 780,
      "்": 781,
      "ం": 782,
      "ఊ": 783,
      "ఒ": 784,
      "క": 785,
      "గ": 786,
      "థ": 787,
      "ద": 788,
      "న": 789,
      "ప": 790,
      "బ": 791,
      "ర": 792,
      "ళ": 793,
      "వ": 794,
      "ా": 795,
      "ి": 796,
      "ు": 797,
      "ే": 798,
      "ొ": 799,
      "్": 800,
      "ಂ": 801,
      "ಕ": 802,
      "ಗ": 803,
      "ಚ": 804,
      "ಜ": 805,
      "ಡ": 806,
      "ದ": 807,
      "ನ": 808,
      "ಪ": 809,
      "ಮ": 810,
      "ಯ": 811,
      "ರ": 812,
      "ಲ": 813,
      "ಳ": 814,
      "ವ": 815,
      "ಶ": 816,
      "ಸ": 817,
      "ಾ": 818,
      "ಿ": 819,
      "ು": 820,
      "ೋ": 821,
      "್": 822,
      "ം": 823,
      "അ": 824,
      "ആ": 825,
      "ഇ": 826,
      "ഈ": 827,
      "എ": 828,
      "ഒ": 829,
      "ക": 830,
      "ഗ": 831,
      "ങ": 832,
      "ച": 833,
      "ജ": 834,
      "ട": 835,
      "ണ": 836,
      "ത": 837,
      "ധ": 838,
      "ന": 839,
      "പ": 840,
      "ബ": 841,
      "മ": 842,
      "യ": 843,
      "ര": 844,
      "റ": 845,
      "ല": 846,
      "ള": 847,
      "വ": 848,
      "ശ": 849,
      "ഷ": 850,
      "സ": 851,
      "ാ": 852,
      "ി": 853,
      "ീ": 854,
      "ു": 855,
      "ൃ": 856,
      "െ": 857,
      "േ": 858,
      "ോ": 859,
      "്": 860,
      "൪": 861,
      "ൻ": 862,
      "ർ": 863,
      "ൽ": 864,
      "ൾ": 865,
      "ං": 866,
      "ක": 867,
      "ජ": 868,
      "ධ": 869,
      "න": 870,
      "ය": 871,
      "ර": 872,
      "ල": 873,
      "ව": 874,
      "ශ": 875,
      "්": 876,
      "ා": 877,
      "ි": 878,
      "ී": 879,
      "ก": 880,
      "ข": 881,
      "ค": 882,
      "ง": 883,
      "จ": 884,
      "ช": 885,
      "ซ": 886,
      "ด": 887,
      "ต": 888,
      "น": 889,
      "บ": 890,
      "ป": 891,
      "ผ": 892,
      "พ": 893,
      "ม": 894,
      "ย": 895,
      "ร": 896,
      "ล": 897,
      "ว": 898,
      "ศ": 899,
      "ส": 900,
      "อ": 901,
      "ะ": 902,
      "ั": 903,
      "า": 904,
      "ี": 905,
      "ึ": 906,
      "฿": 907,
      "เ": 908,
      "แ": 909,
      "็": 910,
      "่": 911,
      "้": 912,
      "་": 913,
      "།": 914,
      "ཁ": 915,
      "ག": 916,
      "ང": 917,
      "ད": 918,
      "ན": 919,
      "ཕ": 920,
      "བ": 921,
      "མ": 922,
      "ར": 923,
      "ས": 924,
      "ུ": 925,
      "ེ": 926,
      "ོ": 927,
      "ྐ": 928,
      "ྗ": 929,
      "ྡ": 930,
      "ྱ": 931,
      "ა": 932,
      "ე": 933,
      "ი": 934,
      "ლ": 935,
      "მ": 936,
      "ს": 937,
      "ხ": 938,
      "ሂ": 939,
      "ር": 940,
      "ሳ": 941,
      "ሻ": 942,
      "ቡ": 943,
      "ት": 944,
      "ን": 945,
      "ዓ": 946,
      "ጊ": 947,
      "គ": 948,
      "ន": 949,
      "ព": 950,
      "រ": 951,
      "ៃ": 952,
      "្": 953,
      "᭧": 954,
      "ᰔ": 955,
      "ᵇ": 956,
      "ᵻ": 957,
      "ᶜ": 958,
      "ᶠ": 959,
      "ᶢ": 960,
      "ḇ": 961,
      "ḏ": 962,
      "ḗ": 963,
      "Ḥ": 964,
      "ḥ": 965,
      "ḷ": 966,
      "ṁ": 967,
      "ṃ": 968,
      "ṅ": 969,
      "ṇ": 970,
      "ṛ": 971,
      "Ṣ": 972,
      "ṣ": 973,
      "Ṭ": 974,
      "ṭ": 975,
      "ṯ": 976,
      "ẓ": 977,
      "ạ": 978,
      "ả": 979,
      "ấ": 980,
      "ầ": 981,
      "ậ": 982,
      "ắ": 983,
      "ằ": 984,
      "ẹ": 985,
      "ế": 986,
      "ề": 987,
      "ễ": 988,
      "ệ": 989,
      "ị": 990,
      "ọ": 991,
      "ố": 992,
      "ồ": 993,
      "ổ": 994,
      "ỗ": 995,
      "ộ": 996,
      "ớ": 997,
      "ờ": 998,
      "ợ": 999,
      "ụ": 1000,
      "Ứ": 1001,
      "ứ": 1002,
      "ử": 1003,
      "ữ": 1004,
      "ỳ": 1005,
      "ỹ": 1006,
      "ἀ": 1007,
      "ἄ": 1008,
      "Ἀ": 1009,
      "Ἁ": 1010,
      "Ἄ": 1011,
      "ἐ": 1012,
      "ἑ": 1013,
      "ἓ": 1014,
      "ἔ": 1015,
      "Ἐ": 1016,
      "Ἑ": 1017,
      "ἡ": 1018,
      "Ἥ": 1019,
      "ἰ": 1020,
      "ἱ": 1021,
      "ἴ": 1022,
      "ἵ": 1023,
      "Ἰ": 1024,
      "ὀ": 1025,
      "ὁ": 1026,
      "ὄ": 1027,
      "Ὄ": 1028,
      "ὑ": 1029,
      "ὖ": 1030,
      "Ὠ": 1031,
      "ὰ": 1032,
      "ὲ": 1033,
      "ὶ": 1034,
      "ὸ": 1035,
      "ᾶ": 1036,
      "ῆ": 1037,
      "ῖ": 1038,
      "ῥ": 1039,
      "ῦ": 1040,
      "Ῥ": 1041,
      "ῶ": 1042,
      "‌": 1043,
      "‍": 1044,
      "‏": 1045,
      "‐": 1046,
      "‑": 1047,
      "‒": 1048,
      "–": 1049,
      "—": 1050,
      "―": 1051,
      "‖": 1052,
      "‘": 1053,
      "’": 1054,
      "‚": 1055,
      "“": 1056,
      "”": 1057,
      "„": 1058,
      "†": 1059,
      "‡": 1060,
      "•": 1061,
      "…": 1062,
      "‫": 1063,
      "‬": 1064,
      "‰": 1065,
      "′": 1066,
      "″": 1067,
      "‹": 1068,
      "›": 1069,
      "‾": 1070,
      "‿": 1071,
      "⁄": 1072,
      "⁇": 1073,
      "⁊": 1074,
      "⁎": 1075,
      "⁠": 1076,
      "⁡": 1077,
      "⁢": 1078,
      "⁯": 1079,
      "⁰": 1080,
      "⁲": 1081,
      "⁴": 1082,
      "⁵": 1083,
      "⁶": 1084,
      "⁸": 1085,
      "⁺": 1086,
      "⁻": 1087,
      "ⁿ": 1088,
      "₁": 1089,
      "₂": 1090,
      "₃": 1091,
      "₄": 1092,
      "₆": 1093,
      "₈": 1094,
      "ₐ": 1095,
      "₤": 1096,
      "₥": 1097,
      "₦": 1098,
      "€": 1099,
      "₯": 1100,
      "₱": 1101,
      "₹": 1102,
      "℃": 1103,
      "℉": 1104,
      "ℎ": 1105,
      "ℓ": 1106,
      "№": 1107,
      "ℚ": 1108,
      "ℝ": 1109,
      "™": 1110,
      "ℰ": 1111,
      "⅓": 1112,
      "⅔": 1113,
      "⅚": 1114,
      "⅛": 1115,
      "←": 1116,
      "→": 1117,
      "⇌": 1118,
      "⇒": 1119,
      "∀": 1120,
      "∂": 1121,
      "∃": 1122,
      "∅": 1123,
      "∆": 1124,
      "∇": 1125,
      "∈": 1126,
      "∉": 1127,
      "∏": 1128,
      "∑": 1129,
      "−": 1130,
      "∕": 1131,
      "∖": 1132,
      "∗": 1133,
      "∘": 1134,
      "∙": 1135,
      "√": 1136,
      "∝": 1137,
      "∞": 1138,
      "∠": 1139,
      "∧": 1140,
      "∨": 1141,
      "∩": 1142,
      "∪": 1143,
      "∫": 1144,
      "∶": 1145,
      "∼": 1146,
      "≃": 1147,
      "≈": 1148,
      "≠": 1149,
      "≡": 1150,
      "≢": 1151,
      "≤": 1152,
      "≥": 1153,
      "≦": 1154,
      "≧": 1155,
      "≪": 1156,
      "⊂": 1157,
      "⊄": 1158,
      "⊆": 1159,
      "⊑": 1160,
      "⊥": 1161,
      "⋂": 1162,
      "⋃": 1163,
      "⋅": 1164,
      "⋯": 1165,
      "⌦": 1166,
      "〈": 1167,
      "〉": 1168,
      "⎞": 1169,
      "⎠": 1170,
      "⎯": 1171,
      "␣": 1172,
      "␤": 1173,
      "␥": 1174,
      "␦": 1175,
      "③": 1176,
      "─": 1177,
      "│": 1178,
      "┴": 1179,
      "═": 1180,
      "║": 1181,
      "■": 1182,
      "□": 1183,
      "◉": 1184,
      "◌": 1185,
      "●": 1186,
      "◔": 1187,
      "◠": 1188,
      "◡": 1189,
      "★": 1190,
      "☆": 1191,
      "☉": 1192,
      "☕": 1193,
      "☝": 1194,
      "☹": 1195,
      "☺": 1196,
      "♀": 1197,
      "♂": 1198,
      "♔": 1199,
      "♚": 1200,
      "♠": 1201,
      "♡": 1202,
      "♦": 1203,
      "♭": 1204,
      "♯": 1205,
      "⚀": 1206,
      "⚑": 1207,
      "⚔": 1208,
      "⚜": 1209,
      "⛄": 1210,
      "✅": 1211,
      "✊": 1212,
      "✋": 1213,
      "✌": 1214,
      "✍": 1215,
      "✓": 1216,
      "✔": 1217,
      "✕": 1218,
      "✘": 1219,
      "✨": 1220,
      "✰": 1221,
      "❄": 1222,
      "❌": 1223,
      "❓": 1224,
      "❤": 1225,
      "⟨": 1226,
      "⟩": 1227,
      "⟶": 1228,
      "⟹": 1229,
      "⩽": 1230,
      "ⲉ": 1231,
      "ⲏ": 1232,
      "ⲓ": 1233,
      "ⲙ": 1234,
      "Ⲭ": 1235,
      "⸍": 1236,
      "、": 1237,
      "。": 1238,
      "〈": 1239,
      "〉": 1240,
      "《": 1241,
      "》": 1242,
      "「": 1243,
      "」": 1244,
      "【": 1245,
      "】": 1246,
      "〔": 1247,
      "〕": 1248,
      "〝": 1249,
      "〞": 1250,
      "あ": 1251,
      "い": 1252,
      "う": 1253,
      "え": 1254,
      "お": 1255,
      "か": 1256,
      "が": 1257,
      "き": 1258,
      "ぎ": 1259,
      "く": 1260,
      "ぐ": 1261,
      "け": 1262,
      "げ": 1263,
      "こ": 1264,
      "ご": 1265,
      "さ": 1266,
      "ざ": 1267,
      "し": 1268,
      "じ": 1269,
      "す": 1270,
      "ず": 1271,
      "せ": 1272,
      "ぜ": 1273,
      "そ": 1274,
      "た": 1275,
      "だ": 1276,
      "ち": 1277,
      "っ": 1278,
      "つ": 1279,
      "て": 1280,
      "で": 1281,
      "と": 1282,
      "ど": 1283,
      "な": 1284,
      "に": 1285,
      "ね": 1286,
      "の": 1287,
      "は": 1288,
      "ば": 1289,
      "ひ": 1290,
      "び": 1291,
      "ふ": 1292,
      "ぶ": 1293,
      "べ": 1294,
      "ま": 1295,
      "み": 1296,
      "め": 1297,
      "も": 1298,
      "ゃ": 1299,
      "や": 1300,
      "ょ": 1301,
      "よ": 1302,
      "ら": 1303,
      "り": 1304,
      "る": 1305,
      "れ": 1306,
      "わ": 1307,
      "を": 1308,
      "ん": 1309,
      "ァ": 1310,
      "ア": 1311,
      "ィ": 1312,
      "イ": 1313,
      "ウ": 1314,
      "ェ": 1315,
      "エ": 1316,
      "カ": 1317,
      "ガ": 1318,
      "キ": 1319,
      "ギ": 1320,
      "ク": 1321,
      "グ": 1322,
      "ケ": 1323,
      "ゲ": 1324,
      "コ": 1325,
      "ゴ": 1326,
      "サ": 1327,
      "シ": 1328,
      "ジ": 1329,
      "ス": 1330,
      "ズ": 1331,
      "セ": 1332,
      "ゼ": 1333,
      "ソ": 1334,
      "ゾ": 1335,
      "タ": 1336,
      "ダ": 1337,
      "チ": 1338,
      "ッ": 1339,
      "ツ": 1340,
      "テ": 1341,
      "デ": 1342,
      "ト": 1343,
      "ド": 1344,
      "ナ": 1345,
      "ニ": 1346,
      "ノ": 1347,
      "ハ": 1348,
      "バ": 1349,
      "パ": 1350,
      "ビ": 1351,
      "フ": 1352,
      "ブ": 1353,
      "プ": 1354,
      "ベ": 1355,
      "ペ": 1356,
      "ホ": 1357,
      "ボ": 1358,
      "マ": 1359,
      "ミ": 1360,
      "ム": 1361,
      "モ": 1362,
      "ャ": 1363,
      "ヤ": 1364,
      "ュ": 1365,
      "ョ": 1366,
      "ヨ": 1367,
      "ラ": 1368,
      "リ": 1369,
      "ル": 1370,
      "レ": 1371,
      "ロ": 1372,
      "ワ": 1373,
      "ン": 1374,
      "ヴ": 1375,
      "・": 1376,
      "ー": 1377,
      "ㄴ": 1378,
      "ㅌ": 1379,
      "㋂": 1380,
      "㏀": 1381,
      "一": 1382,
      "丁": 1383,
      "七": 1384,
      "万": 1385,
      "三": 1386,
      "上": 1387,
      "下": 1388,
      "不": 1389,
      "与": 1390,
      "且": 1391,
      "世": 1392,
      "业": 1393,
      "东": 1394,
      "丝": 1395,
      "両": 1396,
      "丢": 1397,
      "两": 1398,
      "並": 1399,
      "丧": 1400,
      "个": 1401,
      "中": 1402,
      "串": 1403,
      "临": 1404,
      "丹": 1405,
      "为": 1406,
      "主": 1407,
      "丽": 1408,
      "举": 1409,
      "久": 1410,
      "么": 1411,
      "义": 1412,
      "之": 1413,
      "乎": 1414,
      "乐": 1415,
      "乔": 1416,
      "乘": 1417,
      "乙": 1418,
      "九": 1419,
      "也": 1420,
      "习": 1421,
      "书": 1422,
      "买": 1423,
      "乾": 1424,
      "了": 1425,
      "争": 1426,
      "事": 1427,
      "二": 1428,
      "于": 1429,
      "云": 1430,
      "互": 1431,
      "五": 1432,
      "些": 1433,
      "亜": 1434,
      "亡": 1435,
      "交": 1436,
      "产": 1437,
      "享": 1438,
      "京": 1439,
      "亭": 1440,
      "亮": 1441,
      "亲": 1442,
      "人": 1443,
      "什": 1444,
      "仃": 1445,
      "今": 1446,
      "介": 1447,
      "从": 1448,
      "仏": 1449,
      "仔": 1450,
      "他": 1451,
      "付": 1452,
      "代": 1453,
      "以": 1454,
      "仪": 1455,
      "们": 1456,
      "仰": 1457,
      "件": 1458,
      "价": 1459,
      "任": 1460,
      "份": 1461,
      "伍": 1462,
      "伐": 1463,
      "休": 1464,
      "众": 1465,
      "会": 1466,
      "伝": 1467,
      "伞": 1468,
      "传": 1469,
      "伤": 1470,
      "伪": 1471,
      "伴": 1472,
      "伸": 1473,
      "似": 1474,
      "但": 1475,
      "位": 1476,
      "低": 1477,
      "住": 1478,
      "佐": 1479,
      "体": 1480,
      "何": 1481,
      "作": 1482,
      "佳": 1483,
      "使": 1484,
      "來": 1485,
      "例": 1486,
      "侍": 1487,
      "供": 1488,
      "侣": 1489,
      "便": 1490,
      "保": 1491,
      "信": 1492,
      "俭": 1493,
      "修": 1494,
      "倍": 1495,
      "們": 1496,
      "倒": 1497,
      "候": 1498,
      "借": 1499,
      "倩": 1500,
      "债": 1501,
      "值": 1502,
      "假": 1503,
      "偏": 1504,
      "做": 1505,
      "停": 1506,
      "健": 1507,
      "偷": 1508,
      "偿": 1509,
      "储": 1510,
      "傲": 1511,
      "傳": 1512,
      "像": 1513,
      "優": 1514,
      "儿": 1515,
      "元": 1516,
      "兄": 1517,
      "充": 1518,
      "先": 1519,
      "光": 1520,
      "克": 1521,
      "免": 1522,
      "党": 1523,
      "入": 1524,
      "內": 1525,
      "全": 1526,
      "八": 1527,
      "公": 1528,
      "六": 1529,
      "共": 1530,
      "关": 1531,
      "兴": 1532,
      "兵": 1533,
      "其": 1534,
      "具": 1535,
      "典": 1536,
      "养": 1537,
      "兼": 1538,
      "内": 1539,
      "再": 1540,
      "冒": 1541,
      "写": 1542,
      "军": 1543,
      "农": 1544,
      "冰": 1545,
      "冲": 1546,
      "决": 1547,
      "况": 1548,
      "冶": 1549,
      "冷": 1550,
      "冻": 1551,
      "准": 1552,
      "凉": 1553,
      "凍": 1554,
      "减": 1555,
      "凝": 1556,
      "几": 1557,
      "凳": 1558,
      "凹": 1559,
      "出": 1560,
      "击": 1561,
      "函": 1562,
      "刀": 1563,
      "分": 1564,
      "切": 1565,
      "划": 1566,
      "刘": 1567,
      "则": 1568,
      "创": 1569,
      "初": 1570,
      "判": 1571,
      "別": 1572,
      "利": 1573,
      "别": 1574,
      "到": 1575,
      "制": 1576,
      "刹": 1577,
      "刺": 1578,
      "剂": 1579,
      "前": 1580,
      "剎": 1581,
      "剣": 1582,
      "剧": 1583,
      "劇": 1584,
      "劈": 1585,
      "劉": 1586,
      "力": 1587,
      "办": 1588,
      "功": 1589,
      "加": 1590,
      "务": 1591,
      "动": 1592,
      "努": 1593,
      "劫": 1594,
      "励": 1595,
      "勃": 1596,
      "勐": 1597,
      "動": 1598,
      "勺": 1599,
      "包": 1600,
      "化": 1601,
      "北": 1602,
      "匙": 1603,
      "匠": 1604,
      "区": 1605,
      "医": 1606,
      "匿": 1607,
      "區": 1608,
      "十": 1609,
      "千": 1610,
      "卅": 1611,
      "升": 1612,
      "午": 1613,
      "半": 1614,
      "卌": 1615,
      "华": 1616,
      "協": 1617,
      "单": 1618,
      "卖": 1619,
      "南": 1620,
      "単": 1621,
      "博": 1622,
      "卡": 1623,
      "卧": 1624,
      "卫": 1625,
      "印": 1626,
      "危": 1627,
      "即": 1628,
      "卵": 1629,
      "卷": 1630,
      "厂": 1631,
      "厅": 1632,
      "历": 1633,
      "压": 1634,
      "厕": 1635,
      "厘": 1636,
      "原": 1637,
      "厨": 1638,
      "去": 1639,
      "县": 1640,
      "参": 1641,
      "又": 1642,
      "及": 1643,
      "友": 1644,
      "双": 1645,
      "发": 1646,
      "取": 1647,
      "受": 1648,
      "变": 1649,
      "叛": 1650,
      "口": 1651,
      "古": 1652,
      "句": 1653,
      "只": 1654,
      "叫": 1655,
      "叭": 1656,
      "叮": 1657,
      "可": 1658,
      "台": 1659,
      "史": 1660,
      "叶": 1661,
      "号": 1662,
      "司": 1663,
      "叹": 1664,
      "吃": 1665,
      "合": 1666,
      "吉": 1667,
      "吊": 1668,
      "同": 1669,
      "名": 1670,
      "后": 1671,
      "吐": 1672,
      "向": 1673,
      "吓": 1674,
      "君": 1675,
      "吞": 1676,
      "吠": 1677,
      "否": 1678,
      "含": 1679,
      "听": 1680,
      "吵": 1681,
      "吸": 1682,
      "吹": 1683,
      "吻": 1684,
      "呆": 1685,
      "告": 1686,
      "员": 1687,
      "周": 1688,
      "味": 1689,
      "呼": 1690,
      "命": 1691,
      "咊": 1692,
      "和": 1693,
      "咒": 1694,
      "咖": 1695,
      "咬": 1696,
      "咯": 1697,
      "咲": 1698,
      "咳": 1699,
      "品": 1700,
      "哉": 1701,
      "响": 1702,
      "哑": 1703,
      "哥": 1704,
      "哨": 1705,
      "哪": 1706,
      "哭": 1707,
      "哼": 1708,
      "唇": 1709,
      "唐": 1710,
      "唯": 1711,
      "商": 1712,
      "問": 1713,
      "啡": 1714,
      "喇": 1715,
      "喜": 1716,
      "喝": 1717,
      "喰": 1718,
      "喷": 1719,
      "嗽": 1720,
      "嘘": 1721,
      "嘱": 1722,
      "嘲": 1723,
      "嘴": 1724,
      "嘶": 1725,
      "器": 1726,
      "噩": 1727,
      "噪": 1728,
      "嚏": 1729,
      "囍": 1730,
      "四": 1731,
      "回": 1732,
      "因": 1733,
      "团": 1734,
      "団": 1735,
      "园": 1736,
      "困": 1737,
      "図": 1738,
      "围": 1739,
      "国": 1740,
      "图": 1741,
      "國": 1742,
      "園": 1743,
      "圕": 1744,
      "圖": 1745,
      "土": 1746,
      "在": 1747,
      "地": 1748,
      "场": 1749,
      "圾": 1750,
      "坏": 1751,
      "坐": 1752,
      "块": 1753,
      "坟": 1754,
      "坠": 1755,
      "坡": 1756,
      "坤": 1757,
      "坪": 1758,
      "垃": 1759,
      "型": 1760,
      "垫": 1761,
      "城": 1762,
      "域": 1763,
      "埠": 1764,
      "基": 1765,
      "堂": 1766,
      "堆": 1767,
      "堡": 1768,
      "場": 1769,
      "堵": 1770,
      "塌": 1771,
      "塞": 1772,
      "境": 1773,
      "墓": 1774,
      "墙": 1775,
      "墨": 1776,
      "壁": 1777,
      "士": 1778,
      "壯": 1779,
      "声": 1780,
      "处": 1781,
      "备": 1782,
      "変": 1783,
      "复": 1784,
      "夏": 1785,
      "外": 1786,
      "多": 1787,
      "夜": 1788,
      "大": 1789,
      "天": 1790,
      "太": 1791,
      "夫": 1792,
      "失": 1793,
      "头": 1794,
      "奇": 1795,
      "奉": 1796,
      "奎": 1797,
      "奏": 1798,
      "奖": 1799,
      "套": 1800,
      "女": 1801,
      "奶": 1802,
      "她": 1803,
      "好": 1804,
      "如": 1805,
      "妃": 1806,
      "妇": 1807,
      "妈": 1808,
      "妻": 1809,
      "妾": 1810,
      "姆": 1811,
      "始": 1812,
      "威": 1813,
      "娘": 1814,
      "娜": 1815,
      "娩": 1816,
      "婚": 1817,
      "婴": 1818,
      "媛": 1819,
      "子": 1820,
      "孔": 1821,
      "孕": 1822,
      "字": 1823,
      "季": 1824,
      "孤": 1825,
      "学": 1826,
      "孩": 1827,
      "孫": 1828,
      "學": 1829,
      "宁": 1830,
      "它": 1831,
      "宅": 1832,
      "宇": 1833,
      "安": 1834,
      "完": 1835,
      "官": 1836,
      "定": 1837,
      "宜": 1838,
      "宝": 1839,
      "实": 1840,
      "実": 1841,
      "宠": 1842,
      "审": 1843,
      "客": 1844,
      "宣": 1845,
      "室": 1846,
      "害": 1847,
      "宵": 1848,
      "家": 1849,
      "容": 1850,
      "宾": 1851,
      "寄": 1852,
      "密": 1853,
      "富": 1854,
      "寓": 1855,
      "察": 1856,
      "寡": 1857,
      "寧": 1858,
      "審": 1859,
      "寫": 1860,
      "寶": 1861,
      "寸": 1862,
      "对": 1863,
      "寻": 1864,
      "导": 1865,
      "封": 1866,
      "射": 1867,
      "将": 1868,
      "尊": 1869,
      "導": 1870,
      "小": 1871,
      "少": 1872,
      "尖": 1873,
      "尘": 1874,
      "尚": 1875,
      "尝": 1876,
      "尬": 1877,
      "就": 1878,
      "尴": 1879,
      "尿": 1880,
      "局": 1881,
      "居": 1882,
      "屋": 1883,
      "屍": 1884,
      "屏": 1885,
      "屑": 1886,
      "展": 1887,
      "属": 1888,
      "山": 1889,
      "岛": 1890,
      "岩": 1891,
      "岳": 1892,
      "岸": 1893,
      "島": 1894,
      "崇": 1895,
      "川": 1896,
      "州": 1897,
      "巡": 1898,
      "工": 1899,
      "巧": 1900,
      "差": 1901,
      "己": 1902,
      "已": 1903,
      "巾": 1904,
      "币": 1905,
      "市": 1906,
      "布": 1907,
      "师": 1908,
      "希": 1909,
      "帐": 1910,
      "帘": 1911,
      "帝": 1912,
      "带": 1913,
      "師": 1914,
      "席": 1915,
      "常": 1916,
      "帽": 1917,
      "幕": 1918,
      "幣": 1919,
      "干": 1920,
      "平": 1921,
      "年": 1922,
      "并": 1923,
      "幸": 1924,
      "幼": 1925,
      "広": 1926,
      "庆": 1927,
      "床": 1928,
      "库": 1929,
      "应": 1930,
      "底": 1931,
      "府": 1932,
      "废": 1933,
      "度": 1934,
      "座": 1935,
      "庫": 1936,
      "庭": 1937,
      "康": 1938,
      "廊": 1939,
      "廣": 1940,
      "延": 1941,
      "建": 1942,
      "廿": 1943,
      "开": 1944,
      "弃": 1945,
      "弄": 1946,
      "弊": 1947,
      "式": 1948,
      "引": 1949,
      "弘": 1950,
      "弟": 1951,
      "张": 1952,
      "弥": 1953,
      "弱": 1954,
      "強": 1955,
      "强": 1956,
      "归": 1957,
      "当": 1958,
      "录": 1959,
      "形": 1960,
      "彩": 1961,
      "影": 1962,
      "彼": 1963,
      "往": 1964,
      "征": 1965,
      "待": 1966,
      "很": 1967,
      "律": 1968,
      "徒": 1969,
      "得": 1970,
      "御": 1971,
      "復": 1972,
      "微": 1973,
      "徳": 1974,
      "德": 1975,
      "心": 1976,
      "必": 1977,
      "志": 1978,
      "忘": 1979,
      "忙": 1980,
      "快": 1981,
      "念": 1982,
      "态": 1983,
      "怒": 1984,
      "怕": 1985,
      "思": 1986,
      "急": 1987,
      "性": 1988,
      "怨": 1989,
      "怪": 1990,
      "总": 1991,
      "恢": 1992,
      "息": 1993,
      "恳": 1994,
      "悟": 1995,
      "患": 1996,
      "情": 1997,
      "惊": 1998,
      "惑": 1999,
      "惜": 2000,
      "想": 2001,
      "惹": 2002,
      "愈": 2003,
      "意": 2004,
      "愛": 2005,
      "感": 2006,
      "愤": 2007,
      "愿": 2008,
      "慌": 2009,
      "慧": 2010,
      "慨": 2011,
      "慮": 2012,
      "慶": 2013,
      "憂": 2014,
      "憤": 2015,
      "懒": 2016,
      "戊": 2017,
      "戌": 2018,
      "戏": 2019,
      "成": 2020,
      "我": 2021,
      "戒": 2022,
      "或": 2023,
      "战": 2024,
      "戦": 2025,
      "截": 2026,
      "戰": 2027,
      "戴": 2028,
      "户": 2029,
      "戸": 2030,
      "戻": 2031,
      "房": 2032,
      "所": 2033,
      "扇": 2034,
      "手": 2035,
      "才": 2036,
      "打": 2037,
      "扔": 2038,
      "执": 2039,
      "扫": 2040,
      "扬": 2041,
      "扭": 2042,
      "扳": 2043,
      "批": 2044,
      "找": 2045,
      "承": 2046,
      "技": 2047,
      "把": 2048,
      "抑": 2049,
      "抓": 2050,
      "抖": 2051,
      "抗": 2052,
      "折": 2053,
      "抛": 2054,
      "护": 2055,
      "报": 2056,
      "抱": 2057,
      "抵": 2058,
      "抹": 2059,
      "押": 2060,
      "拂": 2061,
      "担": 2062,
      "拆": 2063,
      "拉": 2064,
      "拌": 2065,
      "拍": 2066,
      "拒": 2067,
      "拔": 2068,
      "拖": 2069,
      "招": 2070,
      "拜": 2071,
      "拥": 2072,
      "拦": 2073,
      "拧": 2074,
      "拨": 2075,
      "择": 2076,
      "拳": 2077,
      "拿": 2078,
      "持": 2079,
      "挂": 2080,
      "指": 2081,
      "按": 2082,
      "挑": 2083,
      "挛": 2084,
      "挡": 2085,
      "挣": 2086,
      "挤": 2087,
      "挥": 2088,
      "捂": 2089,
      "捉": 2090,
      "捏": 2091,
      "捐": 2092,
      "捕": 2093,
      "换": 2094,
      "据": 2095,
      "授": 2096,
      "掉": 2097,
      "排": 2098,
      "接": 2099,
      "控": 2100,
      "推": 2101,
      "描": 2102,
      "提": 2103,
      "插": 2104,
      "握": 2105,
      "援": 2106,
      "搁": 2107,
      "搅": 2108,
      "搜": 2109,
      "搬": 2110,
      "搭": 2111,
      "摄": 2112,
      "摇": 2113,
      "摔": 2114,
      "摘": 2115,
      "撃": 2116,
      "撒": 2117,
      "撕": 2118,
      "撞": 2119,
      "撤": 2120,
      "撫": 2121,
      "據": 2122,
      "擦": 2123,
      "支": 2124,
      "收": 2125,
      "改": 2126,
      "攻": 2127,
      "放": 2128,
      "政": 2129,
      "故": 2130,
      "效": 2131,
      "敌": 2132,
      "救": 2133,
      "教": 2134,
      "散": 2135,
      "敬": 2136,
      "数": 2137,
      "敲": 2138,
      "整": 2139,
      "數": 2140,
      "文": 2141,
      "斗": 2142,
      "料": 2143,
      "斧": 2144,
      "断": 2145,
      "斯": 2146,
      "新": 2147,
      "斷": 2148,
      "方": 2149,
      "旁": 2150,
      "旅": 2151,
      "旋": 2152,
      "族": 2153,
      "旗": 2154,
      "无": 2155,
      "日": 2156,
      "旧": 2157,
      "早": 2158,
      "时": 2159,
      "旺": 2160,
      "昇": 2161,
      "明": 2162,
      "易": 2163,
      "星": 2164,
      "映": 2165,
      "春": 2166,
      "昨": 2167,
      "昭": 2168,
      "是": 2169,
      "显": 2170,
      "時": 2171,
      "晃": 2172,
      "晒": 2173,
      "晕": 2174,
      "晚": 2175,
      "普": 2176,
      "景": 2177,
      "暑": 2178,
      "暖": 2179,
      "暗": 2180,
      "暦": 2181,
      "暴": 2182,
      "曲": 2183,
      "更": 2184,
      "書": 2185,
      "曼": 2186,
      "替": 2187,
      "最": 2188,
      "會": 2189,
      "月": 2190,
      "有": 2191,
      "朋": 2192,
      "服": 2193,
      "望": 2194,
      "朝": 2195,
      "期": 2196,
      "木": 2197,
      "本": 2198,
      "术": 2199,
      "朱": 2200,
      "朵": 2201,
      "机": 2202,
      "杀": 2203,
      "杂": 2204,
      "权": 2205,
      "杆": 2206,
      "李": 2207,
      "材": 2208,
      "村": 2209,
      "杜": 2210,
      "束": 2211,
      "杠": 2212,
      "条": 2213,
      "来": 2214,
      "杭": 2215,
      "杯": 2216,
      "東": 2217,
      "松": 2218,
      "板": 2219,
      "极": 2220,
      "构": 2221,
      "析": 2222,
      "林": 2223,
      "枚": 2224,
      "果": 2225,
      "枝": 2226,
      "枪": 2227,
      "架": 2228,
      "柏": 2229,
      "柠": 2230,
      "查": 2231,
      "柳": 2232,
      "柴": 2233,
      "标": 2234,
      "栋": 2235,
      "树": 2236,
      "栓": 2237,
      "校": 2238,
      "株": 2239,
      "样": 2240,
      "核": 2241,
      "根": 2242,
      "格": 2243,
      "案": 2244,
      "桌": 2245,
      "桓": 2246,
      "桥": 2247,
      "桶": 2248,
      "梁": 2249,
      "梦": 2250,
      "梧": 2251,
      "梯": 2252,
      "梶": 2253,
      "检": 2254,
      "棵": 2255,
      "椅": 2256,
      "植": 2257,
      "楊": 2258,
      "楔": 2259,
      "楚": 2260,
      "楼": 2261,
      "構": 2262,
      "槌": 2263,
      "槽": 2264,
      "樞": 2265,
      "模": 2266,
      "横": 2267,
      "樹": 2268,
      "機": 2269,
      "橡": 2270,
      "橱": 2271,
      "檬": 2272,
      "次": 2273,
      "欢": 2274,
      "欣": 2275,
      "欧": 2276,
      "欲": 2277,
      "款": 2278,
      "歉": 2279,
      "歌": 2280,
      "止": 2281,
      "正": 2282,
      "此": 2283,
      "步": 2284,
      "武": 2285,
      "歷": 2286,
      "死": 2287,
      "殖": 2288,
      "殭": 2289,
      "段": 2290,
      "毁": 2291,
      "母": 2292,
      "每": 2293,
      "毒": 2294,
      "比": 2295,
      "毕": 2296,
      "毛": 2297,
      "毯": 2298,
      "氏": 2299,
      "民": 2300,
      "气": 2301,
      "水": 2302,
      "氵": 2303,
      "求": 2304,
      "汉": 2305,
      "汗": 2306,
      "江": 2307,
      "池": 2308,
      "汶": 2309,
      "決": 2310,
      "汽": 2311,
      "沁": 2312,
      "沉": 2313,
      "沐": 2314,
      "沒": 2315,
      "沖": 2316,
      "沙": 2317,
      "没": 2318,
      "沱": 2319,
      "河": 2320,
      "油": 2321,
      "治": 2322,
      "沿": 2323,
      "況": 2324,
      "泉": 2325,
      "法": 2326,
      "泡": 2327,
      "波": 2328,
      "泥": 2329,
      "注": 2330,
      "泪": 2331,
      "泳": 2332,
      "泽": 2333,
      "洁": 2334,
      "洋": 2335,
      "洒": 2336,
      "洗": 2337,
      "洞": 2338,
      "津": 2339,
      "洲": 2340,
      "活": 2341,
      "派": 2342,
      "流": 2343,
      "浅": 2344,
      "浆": 2345,
      "测": 2346,
      "济": 2347,
      "浏": 2348,
      "浑": 2349,
      "浓": 2350,
      "浙": 2351,
      "浪": 2352,
      "浮": 2353,
      "浴": 2354,
      "海": 2355,
      "浸": 2356,
      "消": 2357,
      "涛": 2358,
      "液": 2359,
      "淇": 2360,
      "淋": 2361,
      "淡": 2362,
      "深": 2363,
      "混": 2364,
      "淹": 2365,
      "清": 2366,
      "渐": 2367,
      "渗": 2368,
      "渡": 2369,
      "渣": 2370,
      "渤": 2371,
      "温": 2372,
      "港": 2373,
      "渴": 2374,
      "游": 2375,
      "湍": 2376,
      "湿": 2377,
      "溅": 2378,
      "源": 2379,
      "溝": 2380,
      "溶": 2381,
      "滄": 2382,
      "滑": 2383,
      "滚": 2384,
      "满": 2385,
      "滩": 2386,
      "滴": 2387,
      "漂": 2388,
      "漆": 2389,
      "漏": 2390,
      "演": 2391,
      "漢": 2392,
      "漫": 2393,
      "潮": 2394,
      "澄": 2395,
      "澡": 2396,
      "激": 2397,
      "火": 2398,
      "灭": 2399,
      "灯": 2400,
      "灰": 2401,
      "灵": 2402,
      "灾": 2403,
      "炉": 2404,
      "炮": 2405,
      "炸": 2406,
      "点": 2407,
      "炼": 2408,
      "烂": 2409,
      "烟": 2410,
      "烤": 2411,
      "烦": 2412,
      "烧": 2413,
      "烫": 2414,
      "热": 2415,
      "無": 2416,
      "焦": 2417,
      "焰": 2418,
      "然": 2419,
      "照": 2420,
      "煽": 2421,
      "熄": 2422,
      "熊": 2423,
      "熔": 2424,
      "熬": 2425,
      "燃": 2426,
      "爆": 2427,
      "爬": 2428,
      "爱": 2429,
      "父": 2430,
      "片": 2431,
      "版": 2432,
      "牙": 2433,
      "牛": 2434,
      "牠": 2435,
      "牡": 2436,
      "物": 2437,
      "牵": 2438,
      "特": 2439,
      "犯": 2440,
      "状": 2441,
      "犹": 2442,
      "狂": 2443,
      "狗": 2444,
      "独": 2445,
      "狱": 2446,
      "猛": 2447,
      "猜": 2448,
      "猫": 2449,
      "献": 2450,
      "獻": 2451,
      "玄": 2452,
      "率": 2453,
      "王": 2454,
      "玠": 2455,
      "玥": 2456,
      "玩": 2457,
      "环": 2458,
      "现": 2459,
      "玲": 2460,
      "玻": 2461,
      "珍": 2462,
      "珠": 2463,
      "班": 2464,
      "現": 2465,
      "球": 2466,
      "理": 2467,
      "琴": 2468,
      "瑞": 2469,
      "璃": 2470,
      "瓜": 2471,
      "瓣": 2472,
      "瓦": 2473,
      "瓩": 2474,
      "瓶": 2475,
      "甜": 2476,
      "生": 2477,
      "用": 2478,
      "田": 2479,
      "由": 2480,
      "甲": 2481,
      "申": 2482,
      "电": 2483,
      "男": 2484,
      "画": 2485,
      "界": 2486,
      "留": 2487,
      "異": 2488,
      "疗": 2489,
      "疚": 2490,
      "疤": 2491,
      "疯": 2492,
      "疾": 2493,
      "病": 2494,
      "症": 2495,
      "痉": 2496,
      "痒": 2497,
      "痕": 2498,
      "痛": 2499,
      "瘡": 2500,
      "瘤": 2501,
      "癌": 2502,
      "白": 2503,
      "百": 2504,
      "皂": 2505,
      "的": 2506,
      "皮": 2507,
      "皱": 2508,
      "盐": 2509,
      "监": 2510,
      "盖": 2511,
      "盗": 2512,
      "盘": 2513,
      "盛": 2514,
      "盟": 2515,
      "盧": 2516,
      "目": 2517,
      "盯": 2518,
      "直": 2519,
      "相": 2520,
      "省": 2521,
      "看": 2522,
      "県": 2523,
      "真": 2524,
      "眠": 2525,
      "眼": 2526,
      "着": 2527,
      "睁": 2528,
      "睛": 2529,
      "睡": 2530,
      "督": 2531,
      "瞄": 2532,
      "瞪": 2533,
      "知": 2534,
      "石": 2535,
      "码": 2536,
      "砍": 2537,
      "研": 2538,
      "破": 2539,
      "硫": 2540,
      "硬": 2541,
      "确": 2542,
      "碍": 2543,
      "碎": 2544,
      "碗": 2545,
      "碰": 2546,
      "磨": 2547,
      "示": 2548,
      "礻": 2549,
      "礼": 2550,
      "社": 2551,
      "祂": 2552,
      "祐": 2553,
      "祖": 2554,
      "祝": 2555,
      "神": 2556,
      "票": 2557,
      "福": 2558,
      "离": 2559,
      "私": 2560,
      "秃": 2561,
      "秋": 2562,
      "种": 2563,
      "科": 2564,
      "秘": 2565,
      "租": 2566,
      "秣": 2567,
      "秦": 2568,
      "积": 2569,
      "称": 2570,
      "移": 2571,
      "程": 2572,
      "稚": 2573,
      "稿": 2574,
      "穴": 2575,
      "究": 2576,
      "空": 2577,
      "穿": 2578,
      "窃": 2579,
      "窗": 2580,
      "窝": 2581,
      "窥": 2582,
      "立": 2583,
      "竖": 2584,
      "站": 2585,
      "竜": 2586,
      "竞": 2587,
      "章": 2588,
      "童": 2589,
      "端": 2590,
      "竹": 2591,
      "笑": 2592,
      "笔": 2593,
      "符": 2594,
      "第": 2595,
      "等": 2596,
      "筋": 2597,
      "筑": 2598,
      "答": 2599,
      "筛": 2600,
      "签": 2601,
      "算": 2602,
      "管": 2603,
      "箱": 2604,
      "節": 2605,
      "篝": 2606,
      "籲": 2607,
      "米": 2608,
      "类": 2609,
      "粘": 2610,
      "精": 2611,
      "糊": 2612,
      "糎": 2613,
      "糕": 2614,
      "糖": 2615,
      "系": 2616,
      "紀": 2617,
      "約": 2618,
      "紅": 2619,
      "紐": 2620,
      "索": 2621,
      "紧": 2622,
      "紫": 2623,
      "累": 2624,
      "細": 2625,
      "終": 2626,
      "組": 2627,
      "給": 2628,
      "統": 2629,
      "經": 2630,
      "続": 2631,
      "綠": 2632,
      "維": 2633,
      "総": 2634,
      "緑": 2635,
      "緒": 2636,
      "緩": 2637,
      "縄": 2638,
      "縣": 2639,
      "總": 2640,
      "織": 2641,
      "繪": 2642,
      "红": 2643,
      "约": 2644,
      "级": 2645,
      "纪": 2646,
      "纸": 2647,
      "纹": 2648,
      "线": 2649,
      "练": 2650,
      "组": 2651,
      "细": 2652,
      "织": 2653,
      "绍": 2654,
      "经": 2655,
      "绑": 2656,
      "结": 2657,
      "绕": 2658,
      "给": 2659,
      "绝": 2660,
      "统": 2661,
      "继": 2662,
      "绩": 2663,
      "续": 2664,
      "绳": 2665,
      "维": 2666,
      "绵": 2667,
      "绷": 2668,
      "编": 2669,
      "缝": 2670,
      "缩": 2671,
      "罐": 2672,
      "网": 2673,
      "罚": 2674,
      "罢": 2675,
      "罪": 2676,
      "置": 2677,
      "羅": 2678,
      "羊": 2679,
      "美": 2680,
      "群": 2681,
      "義": 2682,
      "翁": 2683,
      "翅": 2684,
      "翹": 2685,
      "翻": 2686,
      "翼": 2687,
      "老": 2688,
      "考": 2689,
      "者": 2690,
      "而": 2691,
      "耍": 2692,
      "耐": 2693,
      "耳": 2694,
      "耶": 2695,
      "耸": 2696,
      "耿": 2697,
      "聊": 2698,
      "职": 2699,
      "联": 2700,
      "聖": 2701,
      "聘": 2702,
      "聚": 2703,
      "肉": 2704,
      "肌": 2705,
      "肘": 2706,
      "肠": 2707,
      "股": 2708,
      "肤": 2709,
      "肥": 2710,
      "肩": 2711,
      "育": 2712,
      "肺": 2713,
      "肽": 2714,
      "肿": 2715,
      "胃": 2716,
      "背": 2717,
      "胎": 2718,
      "胜": 2719,
      "胞": 2720,
      "胤": 2721,
      "胶": 2722,
      "胸": 2723,
      "能": 2724,
      "脏": 2725,
      "脑": 2726,
      "脚": 2727,
      "脱": 2728,
      "脸": 2729,
      "脾": 2730,
      "腐": 2731,
      "腸": 2732,
      "膀": 2733,
      "膜": 2734,
      "膝": 2735,
      "臂": 2736,
      "自": 2737,
      "臭": 2738,
      "致": 2739,
      "興": 2740,
      "舌": 2741,
      "舔": 2742,
      "舞": 2743,
      "航": 2744,
      "般": 2745,
      "船": 2746,
      "良": 2747,
      "色": 2748,
      "艺": 2749,
      "节": 2750,
      "芒": 2751,
      "芭": 2752,
      "芯": 2753,
      "花": 2754,
      "苍": 2755,
      "苏": 2756,
      "若": 2757,
      "英": 2758,
      "苹": 2759,
      "茶": 2760,
      "草": 2761,
      "荒": 2762,
      "荡": 2763,
      "药": 2764,
      "荷": 2765,
      "荼": 2766,
      "获": 2767,
      "菜": 2768,
      "菩": 2769,
      "華": 2770,
      "菱": 2771,
      "萨": 2772,
      "落": 2773,
      "著": 2774,
      "董": 2775,
      "葬": 2776,
      "葱": 2777,
      "蒸": 2778,
      "蓄": 2779,
      "蔵": 2780,
      "蕾": 2781,
      "薄": 2782,
      "薛": 2783,
      "薩": 2784,
      "薪": 2785,
      "薯": 2786,
      "藍": 2787,
      "藏": 2788,
      "藤": 2789,
      "藩": 2790,
      "蘸": 2791,
      "虑": 2792,
      "虫": 2793,
      "蚁": 2794,
      "蚂": 2795,
      "蛋": 2796,
      "蜀": 2797,
      "蜂": 2798,
      "蝇": 2799,
      "螺": 2800,
      "血": 2801,
      "行": 2802,
      "街": 2803,
      "衛": 2804,
      "衡": 2805,
      "衣": 2806,
      "补": 2807,
      "表": 2808,
      "袋": 2809,
      "被": 2810,
      "袭": 2811,
      "裂": 2812,
      "装": 2813,
      "裤": 2814,
      "西": 2815,
      "要": 2816,
      "親": 2817,
      "见": 2818,
      "观": 2819,
      "视": 2820,
      "览": 2821,
      "觉": 2822,
      "解": 2823,
      "触": 2824,
      "言": 2825,
      "訓": 2826,
      "記": 2827,
      "訳": 2828,
      "詫": 2829,
      "話": 2830,
      "認": 2831,
      "誓": 2832,
      "誕": 2833,
      "語": 2834,
      "說": 2835,
      "説": 2836,
      "読": 2837,
      "誰": 2838,
      "調": 2839,
      "論": 2840,
      "謙": 2841,
      "謝": 2842,
      "警": 2843,
      "计": 2844,
      "订": 2845,
      "讣": 2846,
      "认": 2847,
      "让": 2848,
      "训": 2849,
      "议": 2850,
      "记": 2851,
      "讲": 2852,
      "讶": 2853,
      "许": 2854,
      "论": 2855,
      "设": 2856,
      "访": 2857,
      "证": 2858,
      "评": 2859,
      "识": 2860,
      "诉": 2861,
      "诊": 2862,
      "词": 2863,
      "译": 2864,
      "试": 2865,
      "诚": 2866,
      "话": 2867,
      "询": 2868,
      "该": 2869,
      "语": 2870,
      "误": 2871,
      "说": 2872,
      "请": 2873,
      "读": 2874,
      "课": 2875,
      "调": 2876,
      "谅": 2877,
      "谈": 2878,
      "谋": 2879,
      "谎": 2880,
      "谜": 2881,
      "谢": 2882,
      "谬": 2883,
      "谴": 2884,
      "谷": 2885,
      "豆": 2886,
      "豔": 2887,
      "象": 2888,
      "豪": 2889,
      "豫": 2890,
      "豹": 2891,
      "貌": 2892,
      "貧": 2893,
      "貴": 2894,
      "賞": 2895,
      "質": 2896,
      "负": 2897,
      "财": 2898,
      "责": 2899,
      "败": 2900,
      "质": 2901,
      "贫": 2902,
      "购": 2903,
      "贴": 2904,
      "贷": 2905,
      "费": 2906,
      "贺": 2907,
      "贼": 2908,
      "贾": 2909,
      "资": 2910,
      "赌": 2911,
      "赎": 2912,
      "赛": 2913,
      "赞": 2914,
      "赢": 2915,
      "赤": 2916,
      "走": 2917,
      "赶": 2918,
      "起": 2919,
      "超": 2920,
      "越": 2921,
      "趙": 2922,
      "趣": 2923,
      "足": 2924,
      "趾": 2925,
      "跑": 2926,
      "跟": 2927,
      "路": 2928,
      "跳": 2929,
      "踝": 2930,
      "踩": 2931,
      "蹦": 2932,
      "身": 2933,
      "躲": 2934,
      "車": 2935,
      "軍": 2936,
      "车": 2937,
      "轩": 2938,
      "转": 2939,
      "轮": 2940,
      "轻": 2941,
      "载": 2942,
      "辆": 2943,
      "辑": 2944,
      "输": 2945,
      "辞": 2946,
      "辨": 2947,
      "辩": 2948,
      "边": 2949,
      "达": 2950,
      "辿": 2951,
      "迁": 2952,
      "迄": 2953,
      "迅": 2954,
      "过": 2955,
      "迎": 2956,
      "运": 2957,
      "近": 2958,
      "返": 2959,
      "还": 2960,
      "这": 2961,
      "进": 2962,
      "连": 2963,
      "迟": 2964,
      "述": 2965,
      "迷": 2966,
      "迹": 2967,
      "追": 2968,
      "退": 2969,
      "送": 2970,
      "适": 2971,
      "逃": 2972,
      "逆": 2973,
      "选": 2974,
      "透": 2975,
      "逐": 2976,
      "递": 2977,
      "途": 2978,
      "逗": 2979,
      "這": 2980,
      "通": 2981,
      "速": 2982,
      "造": 2983,
      "進": 2984,
      "逻": 2985,
      "逼": 2986,
      "遇": 2987,
      "遊": 2988,
      "運": 2989,
      "過": 2990,
      "道": 2991,
      "違": 2992,
      "遗": 2993,
      "遭": 2994,
      "遮": 2995,
      "避": 2996,
      "邀": 2997,
      "邈": 2998,
      "邑": 2999,
      "那": 3000,
      "邮": 3001,
      "邵": 3002,
      "邻": 3003,
      "郁": 3004,
      "郎": 3005,
      "部": 3006,
      "都": 3007,
      "鄴": 3008,
      "配": 3009,
      "酒": 3010,
      "酸": 3011,
      "醒": 3012,
      "醫": 3013,
      "釁": 3014,
      "采": 3015,
      "释": 3016,
      "里": 3017,
      "重": 3018,
      "量": 3019,
      "金": 3020,
      "鈴": 3021,
      "銃": 3022,
      "鋪": 3023,
      "錄": 3024,
      "鐵": 3025,
      "针": 3026,
      "钝": 3027,
      "钟": 3028,
      "钢": 3029,
      "钥": 3030,
      "钱": 3031,
      "钻": 3032,
      "铃": 3033,
      "铅": 3034,
      "铝": 3035,
      "银": 3036,
      "铺": 3037,
      "链": 3038,
      "销": 3039,
      "锁": 3040,
      "错": 3041,
      "键": 3042,
      "锻": 3043,
      "镇": 3044,
      "镖": 3045,
      "镜": 3046,
      "長": 3047,
      "长": 3048,
      "間": 3049,
      "閣": 3050,
      "關": 3051,
      "门": 3052,
      "闪": 3053,
      "问": 3054,
      "闲": 3055,
      "间": 3056,
      "闹": 3057,
      "闻": 3058,
      "阅": 3059,
      "队": 3060,
      "阳": 3061,
      "阵": 3062,
      "际": 3063,
      "陈": 3064,
      "降": 3065,
      "限": 3066,
      "陡": 3067,
      "院": 3068,
      "除": 3069,
      "险": 3070,
      "陪": 3071,
      "陳": 3072,
      "陵": 3073,
      "隆": 3074,
      "随": 3075,
      "隐": 3076,
      "隔": 3077,
      "障": 3078,
      "隶": 3079,
      "隸": 3080,
      "难": 3081,
      "雄": 3082,
      "集": 3083,
      "雇": 3084,
      "雎": 3085,
      "雕": 3086,
      "雙": 3087,
      "難": 3088,
      "雨": 3089,
      "雪": 3090,
      "雲": 3091,
      "雷": 3092,
      "震": 3093,
      "霉": 3094,
      "霍": 3095,
      "霸": 3096,
      "青": 3097,
      "静": 3098,
      "非": 3099,
      "靠": 3100,
      "面": 3101,
      "鞋": 3102,
      "音": 3103,
      "頂": 3104,
      "頓": 3105,
      "題": 3106,
      "页": 3107,
      "顶": 3108,
      "项": 3109,
      "顾": 3110,
      "顿": 3111,
      "预": 3112,
      "领": 3113,
      "颊": 3114,
      "频": 3115,
      "颗": 3116,
      "题": 3117,
      "颤": 3118,
      "风": 3119,
      "飛": 3120,
      "飞": 3121,
      "食": 3122,
      "餐": 3123,
      "館": 3124,
      "饭": 3125,
      "饮": 3126,
      "饼": 3127,
      "馆": 3128,
      "首": 3129,
      "香": 3130,
      "馬": 3131,
      "駅": 3132,
      "騒": 3133,
      "騷": 3134,
      "驗": 3135,
      "马": 3136,
      "驶": 3137,
      "驾": 3138,
      "骄": 3139,
      "骑": 3140,
      "高": 3141,
      "鬆": 3142,
      "鬱": 3143,
      "鬼": 3144,
      "魁": 3145,
      "魏": 3146,
      "魔": 3147,
      "鮮": 3148,
      "鱻": 3149,
      "鱼": 3150,
      "鲁": 3151,
      "鲜": 3152,
      "鲨": 3153,
      "鶴": 3154,
      "鸟": 3155,
      "鹰": 3156,
      "麻": 3157,
      "麿": 3158,
      "黃": 3159,
      "黄": 3160,
      "黑": 3161,
      "默": 3162,
      "黙": 3163,
      "鼓": 3164,
      "鼠": 3165,
      "鼻": 3166,
      "齉": 3167,
      "齿": 3168,
      "龄": 3169,
      "龍": 3170,
      "龘": 3171,
      "龙": 3172,
      "龟": 3173,
      "龢": 3174,
      "가": 3175,
      "거": 3176,
      "게": 3177,
      "격": 3178,
      "견": 3179,
      "계": 3180,
      "고": 3181,
      "과": 3182,
      "관": 3183,
      "교": 3184,
      "구": 3185,
      "권": 3186,
      "그": 3187,
      "기": 3188,
      "김": 3189,
      "까": 3190,
      "꿈": 3191,
      "나": 3192,
      "내": 3193,
      "누": 3194,
      "는": 3195,
      "니": 3196,
      "닌": 3197,
      "다": 3198,
      "당": 3199,
      "대": 3200,
      "덕": 3201,
      "도": 3202,
      "독": 3203,
      "동": 3204,
      "되": 3205,
      "득": 3206,
      "등": 3207,
      "때": 3208,
      "라": 3209,
      "란": 3210,
      "력": 3211,
      "로": 3212,
      "록": 3213,
      "르": 3214,
      "를": 3215,
      "리": 3216,
      "맞": 3217,
      "머": 3218,
      "면": 3219,
      "무": 3220,
      "문": 3221,
      "므": 3222,
      "민": 3223,
      "보": 3224,
      "복": 3225,
      "본": 3226,
      "뷰": 3227,
      "비": 3228,
      "뽑": 3229,
      "사": 3230,
      "상": 3231,
      "서": 3232,
      "선": 3233,
      "성": 3234,
      "소": 3235,
      "솜": 3236,
      "송": 3237,
      "순": 3238,
      "쉬": 3239,
      "슈": 3240,
      "스": 3241,
      "슴": 3242,
      "시": 3243,
      "식": 3244,
      "신": 3245,
      "씨": 3246,
      "아": 3247,
      "았": 3248,
      "양": 3249,
      "어": 3250,
      "에": 3251,
      "여": 3252,
      "역": 3253,
      "예": 3254,
      "온": 3255,
      "옹": 3256,
      "와": 3257,
      "요": 3258,
      "용": 3259,
      "운": 3260,
      "원": 3261,
      "은": 3262,
      "을": 3263,
      "음": 3264,
      "의": 3265,
      "이": 3266,
      "인": 3267,
      "일": 3268,
      "있": 3269,
      "잖": 3270,
      "장": 3271,
      "재": 3272,
      "저": 3273,
      "적": 3274,
      "전": 3275,
      "제": 3276,
      "져": 3277,
      "조": 3278,
      "족": 3279,
      "종": 3280,
      "좋": 3281,
      "주": 3282,
      "증": 3283,
      "지": 3284,
      "진": 3285,
      "쯔": 3286,
      "차": 3287,
      "찾": 3288,
      "총": 3289,
      "최": 3290,
      "춘": 3291,
      "출": 3292,
      "췌": 3293,
      "취": 3294,
      "치": 3295,
      "카": 3296,
      "칼": 3297,
      "컴": 3298,
      "크": 3299,
      "키": 3300,
      "택": 3301,
      "터": 3302,
      "테": 3303,
      "통": 3304,
      "트": 3305,
      "특": 3306,
      "퍼": 3307,
      "페": 3308,
      "하": 3309,
      "학": 3310,
      "한": 3311,
      "합": 3312,
      "해": 3313,
      "향": 3314,
      "형": 3315,
      "호": 3316,
      "환": 3317,
      "흥": 3318,
      "힘": 3319,
      "": 3320,
      "": 3321,
      "": 3322,
      "": 3323,
      "": 3324,
      "": 3325,
      "": 3326,
      "": 3327,
      "": 3328,
      "": 3329,
      "": 3330,
      "": 3331,
      "": 3332,
      "": 3333,
      "": 3334,
      "": 3335,
      "": 3336,
      "": 3337,
      "ﬀ": 3338,
      "ﬁ": 3339,
      "️": 3340,
      "︠": 3341,
      "︡": 3342,
      "﻿": 3343,
      "＆": 3344,
      "（": 3345,
      "）": 3346,
      "＋": 3347,
      "，": 3348,
      "－": 3349,
      "．": 3350,
      "３": 3351,
      "：": 3352,
      "；": 3353,
      "＜": 3354,
      "？": 3355,
      "Ｆ": 3356,
      "Ｌ": 3357,
      "Ｏ": 3358,
      "Ｗ": 3359,
      "～": 3360,
      "￣": 3361,
      "￼": 3362,
      "�": 3363,
      "𒀝": 3364,
      "𒂵": 3365,
      "𒄑": 3366,
      "𒅗": 3367,
      "𒆳": 3368,
      "𒈪": 3369,
      "𒊒": 3370,
      "𒊕": 3371,
      "𒌦": 3372,
      "𝐴": 3373,
      "𝐷": 3374,
      "𝐸": 3375,
      "𝐾": 3376,
      "𝑃": 3377,
      "𝑉": 3378,
      "𝑋": 3379,
      "𝑎": 3380,
      "𝑏": 3381,
      "𝑐": 3382,
      "𝑒": 3383,
      "𝑓": 3384,
      "𝑖": 3385,
      "𝑝": 3386,
      "𝑞": 3387,
      "𝑟": 3388,
      "𝑥": 3389,
      "𝑦": 3390,
      "𝒙": 3391,
      "𝜋": 3392,
      "𝟎": 3393,
      "𝟏": 3394,
      "🇯": 3395,
      "🇵": 3396,
      "🇸": 3397,
      "🇺": 3398,
      "🌀": 3399,
      "🌊": 3400,
      "🌎": 3401,
      "🌙": 3402,
      "🌚": 3403,
      "🌟": 3404,
      "🌬": 3405,
      "🌴": 3406,
      "🌵": 3407,
      "🌹": 3408,
      "🌻": 3409,
      "🌿": 3410,
      "🍀": 3411,
      "🍁": 3412,
      "🍂": 3413,
      "🍃": 3414,
      "🍹": 3415,
      "🎃": 3416,
      "🎤": 3417,
      "🎬": 3418,
      "🏂": 3419,
      "🏆": 3420,
      "🏈": 3421,
      "🏻": 3422,
      "🏼": 3423,
      "🏽": 3424,
      "🏾": 3425,
      "🏿": 3426,
      "🐍": 3427,
      "🐞": 3428,
      "🐬": 3429,
      "🐸": 3430,
      "🐺": 3431,
      "👀": 3432,
      "👁": 3433,
      "👅": 3434,
      "👆": 3435,
      "👇": 3436,
      "👈": 3437,
      "👉": 3438,
      "👊": 3439,
      "👋": 3440,
      "👌": 3441,
      "👍": 3442,
      "👎": 3443,
      "👏": 3444,
      "👐": 3445,
      "👨": 3446,
      "👭": 3447,
      "👹": 3448,
      "👻": 3449,
      "💀": 3450,
      "💁": 3451,
      "💂": 3452,
      "💃": 3453,
      "💅": 3454,
      "💋": 3455,
      "💔": 3456,
      "💕": 3457,
      "💙": 3458,
      "💜": 3459,
      "💝": 3460,
      "💣": 3461,
      "💥": 3462,
      "💦": 3463,
      "💨": 3464,
      "💩": 3465,
      "💪": 3466,
      "💯": 3467,
      "💰": 3468,
      "📝": 3469,
      "🔥": 3470,
      "🔨": 3471,
      "🔪": 3472,
      "🔫": 3473,
      "🔮": 3474,
      "🖕": 3475,
      "😀": 3476,
      "😁": 3477,
      "😂": 3478,
      "😃": 3479,
      "😄": 3480,
      "😅": 3481,
      "😈": 3482,
      "😉": 3483,
      "😊": 3484,
      "😌": 3485,
      "😍": 3486,
      "😎": 3487,
      "😏": 3488,
      "😐": 3489,
      "😑": 3490,
      "😒": 3491,
      "😔": 3492,
      "😕": 3493,
      "😘": 3494,
      "😛": 3495,
      "😜": 3496,
      "😝": 3497,
      "😞": 3498,
      "😠": 3499,
      "😡": 3500,
      "😢": 3501,
      "😣": 3502,
      "😤": 3503,
      "😥": 3504,
      "😦": 3505,
      "😩": 3506,
      "😫": 3507,
      "😭": 3508,
      "😮": 3509,
      "😯": 3510,
      "😱": 3511,
      "😳": 3512,
      "😴": 3513,
      "😵": 3514,
      "😷": 3515,
      "😹": 3516,
      "😻": 3517,
      "😼": 3518,
      "🙀": 3519,
      "🙂": 3520,
      "🙃": 3521,
      "🙄": 3522,
      "🙅": 3523,
      "🙈": 3524,
      "🙋": 3525,
      "🙌": 3526,
      "🙏": 3527,
      "🚂": 3528,
      "🚮": 3529,
      "🤔": 3530,
      "🤗": 3531,
      "🤙": 3532,
      "🤡": 3533,
      "🤢": 3534,
      "🤣": 3535,
      "🤤": 3536,
      "🤦": 3537,
      "🤧": 3538,
      "🤪": 3539,
      "🤬": 3540,
      "🤭": 3541,
      "🤮": 3542,
      "🤷": 3543,
      "🥰": 3544,
      "🥱": 3545,
      "🥴": 3546,
      "🥺": 3547,
      "🧐": 3548,
      "󾌧": 3549,
      "󾌴": 3550,
      "󾍑": 3551,
      "󾓤": 3552,
      "󾠥": 3553,
      "󾮗": 3554,
      "󾮙": 3555,
      "󾮟": 3556,
      "􀅾": 3557,
      "􀆟": 3558,
      "􀆠": 3559,
      "􀆡": 3560,
      "􀆢": 3561,
      "􀆣": 3562,
      "􄐁": 3563,
      "th": 3564,
      "in": 3565,
      "an": 3566,
      "er": 3567,
      "the": 3568,
      "on": 3569,
      "re": 3570,
      "at": 3571,
      "en": 3572,
      "is": 3573,
      "or": 3574,
      "es": 3575,
      "ed": 3576,
      "al": 3577,
      "as": 3578,
      "ar": 3579,
      "of": 3580,
      "and": 3581,
      "ou": 3582,
      "ti": 3583,
      "to": 3584,
      "ing": 3585,
      "ic": 3586,
      "it": 3587,
      "le": 3588,
      "st": 3589,
      "he": 3590,
      "ro": 3591,
      "ent": 3592,
      "se": 3593,
      "ion": 3594,
      "be": 3595,
      "ac": 3596,
      "tion": 3597,
      "om": 3598,
      "ly": 3599,
      "ve": 3600,
      "for": 3601,
      "ch": 3602,
      "The": 3603,
      "ol": 3604,
      "il": 3605,
      "de": 3606,
      "ation": 3607,
      "wh": 3608,
      "ce": 3609,
      "am": 3610,
      "ow": 3611,
      "ter": 3612,
      "con": 3613,
      "that": 3614,
      "ad": 3615,
      "us": 3616,
      "are": 3617,
      "ur": 3618,
      "te": 3619,
      "ag": 3620,
      "ith": 3621,
      "ver": 3622,
      "id": 3623,
      "ab": 3624,
      "ir": 3625,
      "ig": 3626,
      "mo": 3627,
      "with": 3628,
      "tr": 3629,
      "ther": 3630,
      "ul": 3631,
      "ay": 3632,
      "pe": 3633,
      "ts": 3634,
      "un": 3635,
      "wer": 3636,
      "was": 3637,
      "op": 3638,
      "im": 3639,
      "qu": 3640,
      "res": 3641,
      "ot": 3642,
      "ans": 3643,
      "ne": 3644,
      "pro": 3645,
      "ate": 3646,
      "iv": 3647,
      "um": 3648,
      "ap": 3649,
      "by": 3650,
      "oun": 3651,
      "me": 3652,
      "ct": 3653,
      "if": 3654,
      "ld": 3655,
      "com": 3656,
      "pl": 3657,
      "ain": 3658,
      "we": 3659,
      "ers": 3660,
      "rom": 3661,
      "su": 3662,
      "ut": 3663,
      "all": 3664,
      "ex": 3665,
      "his": 3666,
      "ment": 3667,
      "from": 3668,
      "cl": 3669,
      "out": 3670,
      "est": 3671,
      "so": 3672,
      "ke": 3673,
      "In": 3674,
      "ich": 3675,
      "this": 3676,
      "sh": 3677,
      "ge": 3678,
      "ll": 3679,
      "po": 3680,
      "igh": 3681,
      "answer": 3682,
      "tic": 3683,
      "estion": 3684,
      "ass": 3685,
      "ity": 3686,
      "ri": 3687,
      "ill": 3688,
      "ha": 3689,
      "one": 3690,
      "our": 3691,
      "di": 3692,
      "oo": 3693,
      "her": 3694,
      "not": 3695,
      "par": 3696,
      "19": 3697,
      "form": 3698,
      "age": 3699,
      "li": 3700,
      "per": 3701,
      "can": 3702,
      "si": 3703,
      "which": 3704,
      "ould": 3705,
      "wor": 3706,
      "ence": 3707,
      "ess": 3708,
      "ated": 3709,
      "question": 3710,
      "ci": 3711,
      "ist": 3712,
      "do": 3713,
      "gr": 3714,
      "00": 3715,
      "ally": 3716,
      "iven": 3717,
      "ant": 3718,
      "you": 3719,
      "ty": 3720,
      "have": 3721,
      "ore": 3722,
      "ind": 3723,
      "ma": 3724,
      "ong": 3725,
      "der": 3726,
      "any": 3727,
      "lo": 3728,
      "au": 3729,
      "Wh": 3730,
      "ue": 3731,
      "gh": 3732,
      "cor": 3733,
      "has": 3734,
      "fe": 3735,
      "ome": 3736,
      "low": 3737,
      "ine": 3738,
      "other": 3739,
      "str": 3740,
      "ard": 3741,
      "ber": 3742,
      "',": 3743,
      "ound": 3744,
      "end": 3745,
      "ast": 3746,
      "xt": 3747,
      "ear": 3748,
      "ef": 3749,
      "vi": 3750,
      "ud": 3751,
      "over": 3752,
      "ame": 3753,
      "about": 3754,
      "its": 3755,
      "It": 3756,
      "act": 3757,
      "uc": 3758,
      "ough": 3759,
      "ies": 3760,
      "em": 3761,
      "ous": 3762,
      "ure": 3763,
      "ish": 3764,
      "given": 3765,
      "fer": 3766,
      "tions": 3767,
      "et": 3768,
      "por": 3769,
      "ates": 3770,
      "land": 3771,
      "text": 3772,
      "but": 3773,
      "ia": 3774,
      "more": 3775,
      "cre": 3776,
      "ack": 3777,
      "pr": 3778,
      "cont": 3779,
      "no": 3780,
      "ight": 3781,
      "their": 3782,
      "bo": 3783,
      "own": 3784,
      "ev": 3785,
      "they": 3786,
      "up": 3787,
      "ary": 3788,
      "Ch": 3789,
      "pres": 3790,
      "ele": 3791,
      "ask": 3792,
      "af": 3793,
      "ple": 3794,
      "who": 3795,
      "ater": 3796,
      "ak": 3797,
      "were": 3798,
      "ood": 3799,
      "dis": 3800,
      "pre": 3801,
      "ach": 3802,
      "gen": 3803,
      "el": 3804,
      "bl": 3805,
      "ical": 3806,
      "ive": 3807,
      "also": 3808,
      "ased": 3809,
      "An": 3810,
      "mer": 3811,
      "co": 3812,
      "pass": 3813,
      "tw": 3814,
      "ance": 3815,
      "rect": 3816,
      "av": 3817,
      "than": 3818,
      "ase": 3819,
      "),": 3820,
      "ip": 3821,
      "ory": 3822,
      "some": 3823,
      "spe": 3824,
      "ep": 3825,
      "able": 3826,
      "most": 3827,
      "work": 3828,
      "will": 3829,
      "ang": 3830,
      "ph": 3831,
      "rel": 3832,
      "fir": 3833,
      "red": 3834,
      "os": 3835,
      "des": 3836,
      "\".": 3837,
      "kn": 3838,
      "coun": 3839,
      "formation": 3840,
      "St": 3841,
      "rit": 3842,
      "would": 3843,
      "ob": 3844,
      "enti": 3845,
      "ace": 3846,
      "vel": 3847,
      "had": 3848,
      ").": 3849,
      "two": 3850,
      "bet": 3851,
      "ere": 3852,
      "ust": 3853,
      "20": 3854,
      "cent": 3855,
      "fol": 3856,
      "aw": 3857,
      "ice": 3858,
      "ree": 3859,
      "when": 3860,
      "oc": 3861,
      "ser": 3862,
      "year": 3863,
      "sent": 3864,
      "ces": 3865,
      "first": 3866,
      "ign": 3867,
      "arch": 3868,
      "ian": 3869,
      "art": 3870,
      "He": 3871,
      "man": 3872,
      "follow": 3873,
      "port": 3874,
      "ble": 3875,
      "What": 3876,
      "og": 3877,
      "into": 3878,
      "Un": 3879,
      "mon": 3880,
      "num": 3881,
      "ren": 3882,
      "tive": 3883,
      "ents": 3884,
      "bec": 3885,
      "passage": 3886,
      "time": 3887,
      "br": 3888,
      "like": 3889,
      "ten": 3890,
      "lar": 3891,
      "information": 3892,
      "ations": 3893,
      "my": 3894,
      "This": 3895,
      "there": 3896,
      "off": 3897,
      "inter": 3898,
      "Th": 3899,
      "go": 3900,
      "incl": 3901,
      "need": 3902,
      "them": 3903,
      "been": 3904,
      "used": 3905,
      "high": 3906,
      "ie": 3907,
      "iz": 3908,
      "pop": 3909,
      "ever": 3910,
      "ause": 3911,
      "Ther": 3912,
      "cri": 3913,
      "ult": 3914,
      "ew": 3915,
      "ited": 3916,
      "ds": 3917,
      "sy": 3918,
      "ople": 3919,
      "cho": 3920,
      "cons": 3921,
      "ween": 3922,
      "context": 3923,
      "pos": 3924,
      "ile": 3925,
      "state": 3926,
      "sentence": 3927,
      "task": 3928,
      "new": 3929,
      "what": 3930,
      "king": 3931,
      "aph": 3932,
      "je": 3933,
      "men": 3934,
      "try": 3935,
      "between": 3936,
      "reg": 3937,
      "200": 3938,
      "such": 3939,
      "sp": 3940,
      "ays": 3941,
      "ide": 3942,
      "pol": 3943,
      "term": 3944,
      "popul": 3945,
      "part": 3946,
      "thing": 3947,
      "comp": 3948,
      "urn": 3949,
      "element": 3950,
      "dr": 3951,
      "ks": 3952,
      "people": 3953,
      "ial": 3954,
      "..": 3955,
      "efore": 3956,
      "should": 3957,
      "\",": 3958,
      "after": 3959,
      "ite": 3960,
      "col": 3961,
      "val": 3962,
      "vers": 3963,
      "many": 3964,
      "how": 3965,
      "following": 3966,
      "fin": 3967,
      "correct": 3968,
      "ative": 3969,
      "fl": 3970,
      "So": 3971,
      "ific": 3972,
      "she": 3973,
      "loc": 3974,
      "ding": 3975,
      "ince": 3976,
      "18": 3977,
      "nor": 3978,
      "ran": 3979,
      "prov": 3980,
      "use": 3981,
      "erson": 3982,
      "where": 3983,
      "tit": 3984,
      "duc": 3985,
      "does": 3986,
      "ties": 3987,
      "int": 3988,
      "put": 3989,
      "ra": 3990,
      "cur": 3991,
      "ational": 3992,
      "ire": 3993,
      "uring": 3994,
      "ta": 3995,
      "cess": 3996,
      "ise": 3997,
      "Amer": 3998,
      "io": 3999,
      "ubl": 4000,
      "No": 4001,
      "Americ": 4002,
      ".\"": 4003,
      "mus": 4004,
      "bor": 4005,
      "tain": 4006,
      "air": 4007,
      "ual": 4008,
      "sol": 4009,
      "tern": 4010,
      "fr": 4011,
      "oup": 4012,
      "les": 4013,
      "search": 4014,
      "sing": 4015,
      "ction": 4016,
      "car": 4017,
      "outh": 4018,
      "pt": 4019,
      "bu": 4020,
      "mar": 4021,
      "Ar": 4022,
      "only": 4023,
      "because": 4024,
      "rough": 4025,
      "get": 4026,
      "based": 4027,
      "sub": 4028,
      "dif": 4029,
      "fore": 4030,
      "includ": 4031,
      "then": 4032,
      "day": 4033,
      "gre": 4034,
      "10": 4035,
      "ors": 4036,
      "Qu": 4037,
      "these": 4038,
      "did": 4039,
      "gan": 4040,
      "your": 4041,
      "cr": 4042,
      "contain": 4043,
      "play": 4044,
      "gest": 4045,
      "cond": 4046,
      "less": 4047,
      "main": 4048,
      "Re": 4049,
      "known": 4050,
      "may": 4051,
      "long": 4052,
      "Therefore": 4053,
      "sel": 4054,
      "gener": 4055,
      "ens": 4056,
      "tem": 4057,
      "years": 4058,
      "En": 4059,
      "stud": 4060,
      "city": 4061,
      "descri": 4062,
      "How": 4063,
      "row": 4064,
      "min": 4065,
      "tal": 4066,
      "ied": 4067,
      "ful": 4068,
      "under": 4069,
      "him": 4070,
      "through": 4071,
      "sa": 4072,
      "research": 4073,
      "ating": 4074,
      "ily": 4075,
      "Con": 4076,
      "sur": 4077,
      "number": 4078,
      "group": 4079,
      "call": 4080,
      "pon": 4081,
      "person": 4082,
      "ticle": 4083,
      "states": 4084,
      "Al": 4085,
      "med": 4086,
      "tho": 4087,
      "list": 4088,
      "ting": 4089,
      "rele": 4090,
      "turn": 4091,
      "stem": 4092,
      "gy": 4093,
      "tim": 4094,
      "Question": 4095,
      "ved": 4096,
      "fil": 4097,
      "cted": 4098,
      "hy": 4099,
      "produc": 4100,
      "class": 4101,
      "cer": 4102,
      "ered": 4103,
      "eng": 4104,
      "find": 4105,
      "present": 4106,
      "agr": 4107,
      "well": 4108,
      "Se": 4109,
      "hel": 4110,
      "both": 4111,
      "ins": 4112,
      "ude": 4113,
      "soci": 4114,
      "tra": 4115,
      "Nor": 4116,
      "water": 4117,
      "ublic": 4118,
      "uro": 4119,
      "sis": 4120,
      "ild": 4121,
      "pic": 4122,
      "12": 4123,
      "ug": 4124,
      "mem": 4125,
      "found": 4126,
      "app": 4127,
      "writ": 4128,
      "ted": 4129,
      "char": 4130,
      "during": 4131,
      "lear": 4132,
      "ife": 4133,
      "vis": 4134,
      "New": 4135,
      "back": 4136,
      "Given": 4137,
      "15": 4138,
      "You": 4139,
      "De": 4140,
      "country": 4141,
      "area": 4142,
      "olog": 4143,
      "while": 4144,
      "ese": 4145,
      "differ": 4146,
      "old": 4147,
      "sion": 4148,
      "world": 4149,
      "ning": 4150,
      "music": 4151,
      "ath": 4152,
      "spec": 4153,
      "ms": 4154,
      "ular": 4155,
      "cy": 4156,
      "led": 4157,
      "read": 4158,
      "name": 4159,
      "199": 4160,
      "way": 4161,
      "fic": 4162,
      "provid": 4163,
      "bers": 4164,
      "ca": 4165,
      "la": 4166,
      "ck": 4167,
      "ants": 4168,
      "als": 4169,
      "tri": 4170,
      "ves": 4171,
      "before": 4172,
      "set": 4173,
      "ters": 4174,
      "United": 4175,
      "being": 4176,
      "Jo": 4177,
      "agraph": 4178,
      "velop": 4179,
      "sup": 4180,
      "incre": 4181,
      "second": 4182,
      "att": 4183,
      "For": 4184,
      "gl": 4185,
      "ship": 4186,
      "don": 4187,
      "ail": 4188,
      "cap": 4189,
      "ven": 4190,
      "fam": 4191,
      "We": 4192,
      "know": 4193,
      "ason": 4194,
      "three": 4195,
      "Euro": 4196,
      "ry": 4197,
      "dy": 4198,
      "article": 4199,
      "ctive": 4200,
      "ook": 4201,
      "As": 4202,
      "though": 4203,
      "place": 4204,
      "exam": 4205,
      "describ": 4206,
      "mat": 4207,
      "develop": 4208,
      "Is": 4209,
      "each": 4210,
      "comm": 4211,
      "ists": 4212,
      "Europe": 4213,
      "cts": 4214,
      "ony": 4215,
      "made": 4216,
      "recor": 4217,
      "ener": 4218,
      "help": 4219,
      "ices": 4220,
      "17": 4221,
      "system": 4222,
      "chool": 4223,
      "ari": 4224,
      "paragraph": 4225,
      "vol": 4226,
      "ub": 4227,
      "sm": 4228,
      "illion": 4229,
      "cell": 4230,
      "uch": 4231,
      "American": 4232,
      "could": 4233,
      "relation": 4234,
      "ton": 4235,
      "che": 4236,
      "ward": 4237,
      "respon": 4238,
      "called": 4239,
      "ced": 4240,
      "self": 4241,
      "14": 4242,
      "requ": 4243,
      "ute": 4244,
      "13": 4245,
      "16": 4246,
      "value": 4247,
      "very": 4248,
      "ures": 4249,
      "ases": 4250,
      "ments": 4251,
      "light": 4252,
      "amp": 4253,
      "again": 4254,
      "ually": 4255,
      "largest": 4256,
      "tre": 4257,
      "ove": 4258,
      "Com": 4259,
      "son": 4260,
      "direct": 4261,
      "ature": 4262,
      "trans": 4263,
      "oy": 4264,
      "come": 4265,
      "too": 4266,
      "uct": 4267,
      "ject": 4268,
      "tical": 4269,
      "'.": 4270,
      "ital": 4271,
      "population": 4272,
      "sim": 4273,
      "gu": 4274,
      "bum": 4275,
      "ural": 4276,
      "organ": 4277,
      "want": 4278,
      "ink": 4279,
      "lead": 4280,
      "war": 4281,
      "contin": 4282,
      "ick": 4283,
      "sign": 4284,
      "ences": 4285,
      "since": 4286,
      "fact": 4287,
      "hum": 4288,
      "hist": 4289,
      "same": 4290,
      "posi": 4291,
      "Af": 4292,
      "ving": 4293,
      "ivid": 4294,
      "sit": 4295,
      "pat": 4296,
      "Par": 4297,
      "here": 4298,
      "cover": 4299,
      "11": 4300,
      "specific": 4301,
      "ution": 4302,
      "hol": 4303,
      "ouse": 4304,
      "small": 4305,
      "return": 4306,
      "band": 4307,
      "equ": 4308,
      "fun": 4309,
      "ort": 4310,
      "life": 4311,
      "story": 4312,
      "make": 4313,
      "now": 4314,
      "using": 4315,
      "ris": 4316,
      "album": 4317,
      "including": 4318,
      "vide": 4319,
      "chan": 4320,
      "States": 4321,
      "food": 4322,
      "angu": 4323,
      "They": 4324,
      "ition": 4325,
      "sible": 4326,
      "acter": 4327,
      "said": 4328,
      "gover": 4329,
      "At": 4330,
      "stand": 4331,
      "much": 4332,
      "mis": 4333,
      "different": 4334,
      "ss": 4335,
      "nam": 4336,
      "cial": 4337,
      "If": 4338,
      "comple": 4339,
      "mal": 4340,
      "Tr": 4341,
      "ions": 4342,
      "show": 4343,
      "above": 4344,
      "ict": 4345,
      "sive": 4346,
      "ages": 4347,
      "school": 4348,
      "consid": 4349,
      "flu": 4350,
      "cus": 4351,
      "sc": 4352,
      "million": 4353,
      "langu": 4354,
      "west": 4355,
      "udi": 4356,
      "film": 4357,
      "ger": 4358,
      "ared": 4359,
      "down": 4360,
      "best": 4361,
      "entity": 4362,
      "line": 4363,
      "sug": 4364,
      "ury": 4365,
      "south": 4366,
      "ina": 4367,
      "Be": 4368,
      "dom": 4369,
      "within": 4370,
      "198": 4371,
      "Yes": 4372,
      "igin": 4373,
      "ished": 4374,
      "see": 4375,
      "fri": 4376,
      "jor": 4377,
      "offic": 4378,
      "ings": 4379,
      "ann": 4380,
      "partic": 4381,
      "child": 4382,
      "event": 4383,
      "result": 4384,
      "Mar": 4385,
      "Le": 4386,
      "--": 4387,
      "just": 4388,
      "large": 4389,
      "000": 4390,
      "leg": 4391,
      ".,": 4392,
      "197": 4393,
      "tak": 4394,
      "study": 4395,
      "oper": 4396,
      "oose": 4397,
      "ism": 4398,
      "order": 4399,
      "thor": 4400,
      "ys": 4401,
      "Ans": 4402,
      "last": 4403,
      "inst": 4404,
      "liv": 4405,
      "good": 4406,
      "vir": 4407,
      "Answer": 4408,
      "ather": 4409,
      "ify": 4410,
      "ost": 4411,
      "later": 4412,
      "yes": 4413,
      "ress": 4414,
      "sk": 4415,
      "friend": 4416,
      "thern": 4417,
      "perform": 4418,
      "tell": 4419,
      "whe": 4420,
      "option": 4421,
      "four": 4422,
      "north": 4423,
      "sever": 4424,
      "bre": 4425,
      "example": 4426,
      "Brit": 4427,
      "ded": 4428,
      "az": 4429,
      "island": 4430,
      "exper": 4431,
      "happ": 4432,
      "elements": 4433,
      "title": 4434,
      "origin": 4435,
      "govern": 4436,
      "aim": 4437,
      "ground": 4438,
      "every": 4439,
      "uses": 4440,
      "ref": 4441,
      "energy": 4442,
      "import": 4443,
      "hn": 4444,
      "cept": 4445,
      "expl": 4446,
      "dition": 4447,
      "bro": 4448,
      "ulti": 4449,
      "common": 4450,
      "let": 4451,
      "major": 4452,
      "mentions": 4453,
      "ustr": 4454,
      "ident": 4455,
      "ense": 4456,
      "word": 4457,
      "Ger": 4458,
      "family": 4459,
      "ash": 4460,
      "type": 4461,
      "She": 4462,
      "North": 4463,
      "After": 4464,
      "til": 4465,
      "Indi": 4466,
      "top": 4467,
      "stract": 4468,
      "say": 4469,
      "ways": 4470,
      "ized": 4471,
      "ics": 4472,
      "level": 4473,
      "ball": 4474,
      "graph": 4475,
      "30": 4476,
      "ave": 4477,
      "ivers": 4478,
      "beli": 4479,
      "alth": 4480,
      "ah": 4481,
      "situ": 4482,
      "often": 4483,
      "ories": 4484,
      "non": 4485,
      "another": 4486,
      "action": 4487,
      "step": 4488,
      "acti": 4489,
      "ls": 4490,
      "ner": 4491,
      "ividual": 4492,
      "lit": 4493,
      "studi": 4494,
      "author": 4495,
      "side": 4496,
      "home": 4497,
      "dep": 4498,
      "till": 4499,
      "song": 4500,
      "whether": 4501,
      "concl": 4502,
      "Can": 4503,
      "refer": 4504,
      "ane": 4505,
      "ars": 4506,
      "sum": 4507,
      "mention": 4508,
      "those": 4509,
      "related": 4510,
      "individual": 4511,
      "suc": 4512,
      "...": 4513,
      "possible": 4514,
      "aper": 4515,
      "Your": 4516,
      "ither": 4517,
      "even": 4518,
      "take": 4519,
      "times": 4520,
      "care": 4521,
      "must": 4522,
      "output": 4523,
      "head": 4524,
      "ility": 4525,
      "serv": 4526,
      "defin": 4527,
      "To": 4528,
      "against": 4529,
      "When": 4530,
      "appe": 4531,
      "tle": 4532,
      "effe": 4533,
      "buil": 4534,
      "contains": 4535,
      "ctr": 4536,
      "ower": 4537,
      "On": 4538,
      "196": 4539,
      "John": 4540,
      "However": 4541,
      "language": 4542,
      "options": 4543,
      "start": 4544,
      "public": 4545,
      "ines": 4546,
      "50": 4547,
      "released": 4548,
      "around": 4549,
      "ames": 4550,
      "ban": 4551,
      "point": 4552,
      "Wor": 4553,
      "appro": 4554,
      "describes": 4555,
      "ze": 4556,
      "South": 4557,
      "met": 4558,
      "multi": 4559,
      "ateg": 4560,
      "proble": 4561,
      "kes": 4562,
      "became": 4563,
      "wood": 4564,
      "several": 4565,
      "cour": 4566,
      "fric": 4567,
      "mil": 4568,
      "post": 4569,
      "test": 4570,
      "Op": 4571,
      "poli": 4572,
      "rest": 4573,
      "along": 4574,
      "means": 4575,
      "Gr": 4576,
      "grow": 4577,
      "region": 4578,
      "important": 4579,
      "depend": 4580,
      "There": 4581,
      "ches": 4582,
      "anti": 4583,
      "hi": 4584,
      "sia": 4585,
      "ights": 4586,
      "aren": 4587,
      "gram": 4588,
      "room": 4589,
      "cean": 4590,
      "arr": 4591,
      "key": 4592,
      "vari": 4593,
      "thesis": 4594,
      "character": 4595,
      "estern": 4596,
      "infer": 4597,
      "ances": 4598,
      "government": 4599,
      "sci": 4600,
      "case": 4601,
      "ird": 4602,
      "ket": 4603,
      "indic": 4604,
      "contro": 4605,
      "bi": 4606,
      "ality": 4607,
      "law": 4608,
      "cies": 4609,
      "mi": 4610,
      "ield": 4611,
      "human": 4612,
      "prote": 4613,
      "abstract": 4614,
      "national": 4615,
      "words": 4616,
      "ork": 4617,
      "ology": 4618,
      "determ": 4619,
      "include": 4620,
      "rad": 4621,
      "early": 4622,
      "tar": 4623,
      "dial": 4624,
      "ali": 4625,
      "ived": 4626,
      "pati": 4627,
      "den": 4628,
      "colle": 4629,
      "ator": 4630,
      "War": 4631,
      "move": 4632,
      "without": 4633,
      "Gre": 4634,
      "curren": 4635,
      "posed": 4636,
      "born": 4637,
      "right": 4638,
      "dist": 4639,
      "process": 4640,
      "dec": 4641,
      "view": 4642,
      "anim": 4643,
      "statement": 4644,
      "Engl": 4645,
      "English": 4646,
      "capital": 4647,
      "ined": 4648,
      "iver": 4649,
      "either": 4650,
      "sure": 4651,
      "until": 4652,
      "25": 4653,
      "located": 4654,
      "east": 4655,
      "vious": 4656,
      "paper": 4657,
      "Pro": 4658,
      "perio": 4659,
      "ives": 4660,
      "iversity": 4661,
      "Col": 4662,
      "plac": 4663,
      "II": 4664,
      "ON": 4665,
      "ength": 4666,
      "input": 4667,
      "ues": 4668,
      "researchers": 4669,
      "rock": 4670,
      "body": 4671,
      "ai": 4672,
      "ately": 4673,
      "numbers": 4674,
      "cording": 4675,
      "electr": 4676,
      "commun": 4677,
      "great": 4678,
      "works": 4679,
      "ges": 4680,
      "Rep": 4681,
      "due": 4682,
      "ox": 4683,
      "cult": 4684,
      "success": 4685,
      "categ": 4686,
      "Ear": 4687,
      "choice": 4688,
      "choose": 4689,
      "struct": 4690,
      "fac": 4691,
      "run": 4692,
      "likely": 4693,
      "chang": 4694,
      "support": 4695,
      "York": 4696,
      "provided": 4697,
      "solute": 4698,
      "ats": 4699,
      "uary": 4700,
      "mean": 4701,
      "ended": 4702,
      "century": 4703,
      "mber": 4704,
      "expres": 4705,
      "job": 4706,
      ".\\": 4707,
      "Which": 4708,
      "true": 4709,
      "still": 4710,
      "ade": 4711,
      "ious": 4712,
      "King": 4713,
      "far": 4714,
      "ked": 4715,
      "Sea": 4716,
      "single": 4717,
      "Republic": 4718,
      "tract": 4719,
      "neg": 4720,
      "pur": 4721,
      "Cl": 4722,
      "change": 4723,
      "moved": 4724,
      "ross": 4725,
      "World": 4726,
      "ults": 4727,
      "proper": 4728,
      "history": 4729,
      "allow": 4730,
      "bel": 4731,
      "considered": 4732,
      "prof": 4733,
      "sou": 4734,
      "ata": 4735,
      "wn": 4736,
      "face": 4737,
      "wee": 4738,
      "Pe": 4739,
      "net": 4740,
      "design": 4741,
      "Sh": 4742,
      "series": 4743,
      "atic": 4744,
      "ump": 4745,
      "US": 4746,
      "bus": 4747,
      "game": 4748,
      "absolute": 4749,
      "ons": 4750,
      "dic": 4751,
      "chn": 4752,
      "represent": 4753,
      "power": 4754,
      "user": 4755,
      "making": 4756,
      "vent": 4757,
      "near": 4758,
      "Afric": 4759,
      "194": 4760,
      "gin": 4761,
      "pothesis": 4762,
      "ose": 4763,
      "aly": 4764,
      "house": 4765,
      "role": 4766,
      "ral": 4767,
      "ft": 4768,
      "rece": 4769,
      "une": 4770,
      "que": 4771,
      "TI": 4772,
      "tries": 4773,
      "town": 4774,
      "24": 4775,
      "total": 4776,
      "among": 4777,
      "conom": 4778,
      "lim": 4779,
      "Fr": 4780,
      "Do": 4781,
      "terms": 4782,
      "bas": 4783,
      "member": 4784,
      "cul": 4785,
      "team": 4786,
      "tics": 4787,
      "children": 4788,
      "entered": 4789,
      "identi": 4790,
      "length": 4791,
      "book": 4792,
      "Sent": 4793,
      "trad": 4794,
      "reason": 4795,
      "Sp": 4796,
      "Ad": 4797,
      "something": 4798,
      "won": 4799,
      "enough": 4800,
      "These": 4801,
      "dialog": 4802,
      "dro": 4803,
      "occur": 4804,
      "ago": 4805,
      "uce": 4806,
      "temper": 4807,
      "Context": 4808,
      "Sy": 4809,
      "vision": 4810,
      "But": 4811,
      "gether": 4812,
      "ument": 4813,
      "hand": 4814,
      "convers": 4815,
      "relationship": 4816,
      "aster": 4817,
      "ply": 4818,
      "obje": 4819,
      "clear": 4820,
      "pri": 4821,
      "cle": 4822,
      "company": 4823,
      "ake": 4824,
      "month": 4825,
      "cu": 4826,
      "previous": 4827,
      "enn": 4828,
      "0s": 4829,
      "generate": 4830,
      "ium": 4831,
      "jo": 4832,
      "ides": 4833,
      "associ": 4834,
      "tele": 4835,
      "issu": 4836,
      "lan": 4837,
      "ically": 4838,
      "nat": 4839,
      "sed": 4840,
      "field": 4841,
      "Since": 4842,
      "sele": 4843,
      "current": 4844,
      "ired": 4845,
      "range": 4846,
      "bon": 4847,
      "higher": 4848,
      "ale": 4849,
      "Ph": 4850,
      "wide": 4851,
      "claim": 4852,
      "Coun": 4853,
      "pot": 4854,
      "City": 4855,
      "wards": 4856,
      "Car": 4857,
      "oot": 4858,
      "ord": 4859,
      "econom": 4860,
      "species": 4861,
      "provide": 4862,
      "lower": 4863,
      "oman": 4864,
      "Rus": 4865,
      "health": 4866,
      "ities": 4867,
      "ley": 4868,
      "lands": 4869,
      "period": 4870,
      "Me": 4871,
      "minis": 4872,
      "(\"": 4873,
      "particular": 4874,
      "ini": 4875,
      "movi": 4876,
      "together": 4877,
      "ness": 4878,
      "members": 4879,
      "techn": 4880,
      "few": 4881,
      "British": 4882,
      "ensive": 4883,
      "invol": 4884,
      "influ": 4885,
      "Ro": 4886,
      "Em": 4887,
      "things": 4888,
      "always": 4889,
      "OP": 4890,
      "lay": 4891,
      "cause": 4892,
      "ability": 4893,
      "mentioned": 4894,
      "remain": 4895,
      "camp": 4896,
      "speak": 4897,
      "Ge": 4898,
      "third": 4899,
      "ids": 4900,
      "interest": 4901,
      "sto": 4902,
      "mic": 4903,
      "pes": 4904,
      "ified": 4905,
      "Sentence": 4906,
      "students": 4907,
      "prim": 4908,
      "position": 4909,
      "response": 4910,
      "situation": 4911,
      "omen": 4912,
      "makes": 4913,
      "Earth": 4914,
      "Pr": 4915,
      "negative": 4916,
      "certain": 4917,
      "Austr": 4918,
      "verse": 4919,
      "America": 4920,
      "provides": 4921,
      "experi": 4922,
      "addition": 4923,
      "rench": 4924,
      "ney": 4925,
      "open": 4926,
      "eas": 4927,
      "began": 4928,
      "hal": 4929,
      "ization": 4930,
      "abl": 4931,
      "cells": 4932,
      "think": 4933,
      "season": 4934,
      "short": 4935,
      "countries": 4936,
      "fur": 4937,
      "sound": 4938,
      "ank": 4939,
      "augh": 4940,
      "Co": 4941,
      "European": 4942,
      "classify": 4943,
      "vo": 4944,
      "Here": 4945,
      "iness": 4946,
      "Austral": 4947,
      "next": 4948,
      "named": 4949,
      "23": 4950,
      "appl": 4951,
      "His": 4952,
      "political": 4953,
      "conversation": 4954,
      "tribu": 4955,
      "former": 4956,
      "ought": 4957,
      "idence": 4958,
      "ency": 4959,
      "patients": 4960,
      "vant": 4961,
      "cat": 4962,
      "mise": 4963,
      "weet": 4964,
      "\")": 4965,
      "avail": 4966,
      "determine": 4967,
      "And": 4968,
      "respe": 4969,
      "took": 4970,
      "youn": 4971,
      "TION": 4972,
      "ports": 4973,
      "har": 4974,
      "May": 4975,
      ",\"": 4976,
      "Eng": 4977,
      "foc": 4978,
      "asks": 4979,
      "State": 4980,
      "Ab": 4981,
      "imm": 4982,
      "ling": 4983,
      "separ": 4984,
      "itary": 4985,
      "Ac": 4986,
      "better": 4987,
      "ilar": 4988,
      "below": 4989,
      "signific": 4990,
      "left": 4991,
      "ctions": 4992,
      "real": 4993,
      "University": 4994,
      "discus": 4995,
      "100": 4996,
      "ones": 4997,
      "ision": 4998,
      "ae": 4999,
      "bal": 5000,
      "questions": 5001,
      "exp": 5002,
      "sequ": 5003,
      "problem": 5004,
      "live": 5005,
      "pris": 5006,
      "Gu": 5007,
      "27": 5008,
      "says": 5009,
      "become": 5010,
      "ption": 5011,
      "Mon": 5012,
      "having": 5013,
      "fire": 5014,
      "paren": 5015,
      "conclude": 5016,
      "ste": 5017,
      "French": 5018,
      "eder": 5019,
      "border": 5020,
      "going": 5021,
      "TIONS": 5022,
      "five": 5023,
      "cal": 5024,
      "Or": 5025,
      "Ocean": 5026,
      "location": 5027,
      "establ": 5028,
      "social": 5029,
      "usually": 5030,
      "ned": 5031,
      "expe": 5032,
      "Pres": 5033,
      "Lon": 5034,
      "With": 5035,
      "OPTIONS": 5036,
      "21": 5037,
      "board": 5038,
      "My": 5039,
      "mag": 5040,
      "win": 5041,
      "ils": 5042,
      "death": 5043,
      "Cent": 5044,
      "might": 5045,
      "iam": 5046,
      "xim": 5047,
      "ains": 5048,
      "fi": 5049,
      "ses": 5050,
      "program": 5051,
      "?\"": 5052,
      "bit": 5053,
      "reach": 5054,
      "data": 5055,
      "mode": 5056,
      "ext": 5057,
      "topic": 5058,
      "available": 5059,
      "gn": 5060,
      "prod": 5061,
      "ured": 5062,
      "late": 5063,
      "dialogue": 5064,
      "dise": 5065,
      "metho": 5066,
      "mother": 5067,
      "amoun": 5068,
      "days": 5069,
      "moder": 5070,
      "popular": 5071,
      "lot": 5072,
      "original": 5073,
      "bur": 5074,
      "All": 5075,
      "Ex": 5076,
      "ably": 5077,
      "record": 5078,
      "London": 5079,
      "plan": 5080,
      "six": 5081,
      "father": 5082,
      "ooking": 5083,
      "hypothesis": 5084,
      "ountain": 5085,
      "increase": 5086,
      "ague": 5087,
      "populous": 5088,
      "kind": 5089,
      "China": 5090,
      "ination": 5091,
      "ential": 5092,
      "add": 5093,
      "refers": 5094,
      "ana": 5095,
      "results": 5096,
      "onic": 5097,
      "feel": 5098,
      "iving": 5099,
      "pose": 5100,
      "else": 5101,
      "force": 5102,
      "big": 5103,
      "apan": 5104,
      "ours": 5105,
      "formed": 5106,
      "od": 5107,
      "building": 5108,
      "idd": 5109,
      "pain": 5110,
      "Char": 5111,
      "und": 5112,
      "Bl": 5113,
      "goti": 5114,
      "England": 5115,
      "sense": 5116,
      "ama": 5117,
      "195": 5118,
      "negoti": 5119,
      "Sc": 5120,
      "decre": 5121,
      "29": 5122,
      "40": 5123,
      "Man": 5124,
      "held": 5125,
      "ending": 5126,
      "significant": 5127,
      "Gree": 5128,
      "Options": 5129,
      "object": 5130,
      "went": 5131,
      "final": 5132,
      "ially": 5133,
      "bed": 5134,
      "green": 5135,
      "ene": 5136,
      "flow": 5137,
      "rather": 5138,
      "tweet": 5139,
      "continu": 5140,
      "Japan": 5141,
      "therefore": 5142,
      "played": 5143,
      "numer": 5144,
      "NA": 5145,
      "away": 5146,
      "television": 5147,
      "round": 5148,
      "treat": 5149,
      "comb": 5150,
      "bir": 5151,
      "includes": 5152,
      "Fran": 5153,
      "Mo": 5154,
      "wise": 5155,
      "Ne": 5156,
      "surface": 5157,
      "West": 5158,
      "natural": 5159,
      "26": 5160,
      "chem": 5161,
      "ung": 5162,
      "inte": 5163,
      "Br": 5164,
      "sty": 5165,
      "ho": 5166,
      "various": 5167,
      "Canad": 5168,
      "Sw": 5169,
      "meas": 5170,
      "living": 5171,
      "28": 5172,
      "Will": 5173,
      "oney": 5174,
      "keep": 5175,
      "Jan": 5176,
      "impl": 5177,
      "phys": 5178,
      "ently": 5179,
      "publ": 5180,
      "mater": 5181,
      "created": 5182,
      "produced": 5183,
      "Read": 5184,
      "grad": 5185,
      "hab": 5186,
      "recent": 5187,
      "ledge": 5188,
      "strong": 5189,
      "mass": 5190,
      "Har": 5191,
      "western": 5192,
      "understand": 5193,
      "break": 5194,
      "ards": 5195,
      "developed": 5196,
      "movie": 5197,
      "National": 5198,
      "ush": 5199,
      "percent": 5200,
      "alse": 5201,
      "development": 5202,
      "similar": 5203,
      "ised": 5204,
      "activ": 5205,
      "road": 5206,
      "Pol": 5207,
      "others": 5208,
      "ery": 5209,
      "conne": 5210,
      "Some": 5211,
      "ps": 5212,
      "stre": 5213,
      "types": 5214,
      "inv": 5215,
      "asked": 5216,
      "ooks": 5217,
      "utter": 5218,
      "gas": 5219,
      "half": 5220,
      "histor": 5221,
      "happen": 5222,
      "ched": 5223,
      "nom": 5224,
      "Bo": 5225,
      "One": 5226,
      "sets": 5227,
      "goal": 5228,
      "highlight": 5229,
      "comes": 5230,
      "got": 5231,
      "production": 5232,
      "video": 5233,
      "cir": 5234,
      "viron": 5235,
      "train": 5236,
      "ime": 5237,
      "written": 5238,
      "strate": 5239,
      "Fe": 5240,
      "placed": 5241,
      "aur": 5242,
      "seem": 5243,
      "further": 5244,
      "prob": 5245,
      "acy": 5246,
      "ession": 5247,
      "mit": 5248,
      "uck": 5249,
      "least": 5250,
      "BC": 5251,
      "Bar": 5252,
      "Med": 5253,
      "193": 5254,
      "travel": 5255,
      "div": 5256,
      "log": 5257,
      "answers": 5258,
      "cles": 5259,
      "hip": 5260,
      "France": 5261,
      "ax": 5262,
      "compared": 5263,
      "atures": 5264,
      "60": 5265,
      "Pass": 5266,
      "cup": 5267,
      "ropol": 5268,
      "aves": 5269,
      "theast": 5270,
      "why": 5271,
      "officially": 5272,
      "positive": 5273,
      "mor": 5274,
      "India": 5275,
      "ped": 5276,
      "initi": 5277,
      "educ": 5278,
      "regard": 5279,
      "control": 5280,
      "Germany": 5281,
      "belief": 5282,
      "territ": 5283,
      "River": 5284,
      "official": 5285,
      "sex": 5286,
      "came": 5287,
      "working": 5288,
      "exist": 5289,
      "particip": 5290,
      "environ": 5291,
      "never": 5292,
      "Ju": 5293,
      "clos": 5294,
      "subject": 5295,
      "areas": 5296,
      "look": 5297,
      "While": 5298,
      "knowledge": 5299,
      "material": 5300,
      "directly": 5301,
      "Asia": 5302,
      "little": 5303,
      "Mus": 5304,
      "['": 5305,
      "modern": 5306,
      "adminis": 5307,
      "ograph": 5308,
      "sour": 5309,
      "East": 5310,
      "temperature": 5311,
      "onym": 5312,
      "Union": 5313,
      "glo": 5314,
      "described": 5315,
      "ier": 5316,
      "report": 5317,
      "greater": 5318,
      "sal": 5319,
      "equation": 5320,
      "fall": 5321,
      "multiple": 5322,
      "iddle": 5323,
      "Geor": 5324,
      "tribut": 5325,
      "coast": 5326,
      "Ste": 5327,
      "general": 5328,
      ".'": 5329,
      "hard": 5330,
      "identif": 5331,
      "ER": 5332,
      "ff": 5333,
      "def": 5334,
      "ior": 5335,
      "complete": 5336,
      "star": 5337,
      "inferred": 5338,
      "Based": 5339,
      "local": 5340,
      "gene": 5341,
      "ient": 5342,
      "itar": 5343,
      "German": 5344,
      "ians": 5345,
      "sentences": 5346,
      "syn": 5347,
      "sea": 5348,
      "business": 5349,
      "choices": 5350,
      "past": 5351,
      "Hence": 5352,
      "ried": 5353,
      "forms": 5354,
      "associated": 5355,
      "plant": 5356,
      "Dis": 5357,
      "ploy": 5358,
      "compe": 5359,
      "tes": 5360,
      "career": 5361,
      "usion": 5362,
      "outs": 5363,
      "week": 5364,
      "ik": 5365,
      "uter": 5366,
      "relig": 5367,
      "aged": 5368,
      "writer": 5369,
      "free": 5370,
      "Kingdom": 5371,
      "Te": 5372,
      "amount": 5373,
      "chemical": 5374,
      "attack": 5375,
      "pie": 5376,
      "share": 5377,
      "cas": 5378,
      "cannot": 5379,
      "included": 5380,
      "suggest": 5381,
      "Sep": 5382,
      "ready": 5383,
      "Li": 5384,
      "months": 5385,
      "By": 5386,
      "full": 5387,
      "Cho": 5388,
      "**": 5389,
      "ino": 5390,
      "Am": 5391,
      "President": 5392,
      "ged": 5393,
      "eth": 5394,
      "Information": 5395,
      "Ber": 5396,
      "phr": 5397,
      "continent": 5398,
      "tour": 5399,
      "really": 5400,
      "']": 5401,
      "affe": 5402,
      "anything": 5403,
      "across": 5404,
      "ples": 5405,
      "La": 5406,
      "site": 5407,
      "kill": 5408,
      "oto": 5409,
      "oty": 5410,
      "asing": 5411,
      "cogn": 5412,
      "rate": 5413,
      "active": 5414,
      "cast": 5415,
      "ric": 5416,
      "river": 5417,
      "tro": 5418,
      "night": 5419,
      "Her": 5420,
      "ume": 5421,
      "events": 5422,
      "Great": 5423,
      "ible": 5424,
      "22": 5425,
      "Set": 5426,
      "however": 5427,
      "background": 5428,
      "ming": 5429,
      "relevant": 5430,
      "ivil": 5431,
      "assist": 5432,
      "ford": 5433,
      "cto": 5434,
      "coming": 5435,
      "meet": 5436,
      "itan": 5437,
      "uction": 5438,
      "lor": 5439,
      "ival": 5440,
      "Chris": 5441,
      "plants": 5442,
      "military": 5443,
      "served": 5444,
      "Passage": 5445,
      "ler": 5446,
      "actions": 5447,
      "foot": 5448,
      "resist": 5449,
      "category": 5450,
      "super": 5451,
      "35": 5452,
      "union": 5453,
      "dam": 5454,
      "motion": 5455,
      "sil": 5456,
      "sugges": 5457,
      "women": 5458,
      "concer": 5459,
      "hor": 5460,
      "space": 5461,
      "Aug": 5462,
      "Person": 5463,
      "groups": 5464,
      "gain": 5465,
      "appear": 5466,
      "According": 5467,
      "clim": 5468,
      "lex": 5469,
      "taken": 5470,
      "levels": 5471,
      "Australia": 5472,
      "Jack": 5473,
      "ula": 5474,
      "tember": 5475,
      "pan": 5476,
      "highest": 5477,
      "van": 5478,
      "Africa": 5479,
      "suggests": 5480,
      "begin": 5481,
      "istic": 5482,
      "require": 5483,
      "strategy": 5484,
      "cop": 5485,
      "That": 5486,
      "sym": 5487,
      "From": 5488,
      "Fin": 5489,
      "idea": 5490,
      "tradition": 5491,
      "ctor": 5492,
      "instr": 5493,
      "lin": 5494,
      "January": 5495,
      "aver": 5496,
      "independ": 5497,
      "custo": 5498,
      "ben": 5499,
      "pack": 5500,
      "party": 5501,
      "sian": 5502,
      "environment": 5503,
      "nia": 5504,
      "quar": 5505,
      "bar": 5506,
      "imp": 5507,
      "Indian": 5508,
      "count": 5509,
      "give": 5510,
      "prefer": 5511,
      "told": 5512,
      "atory": 5513,
      "atom": 5514,
      "June": 5515,
      "stat": 5516,
      "March": 5517,
      "inste": 5518,
      "ering": 5519,
      "drug": 5520,
      "started": 5521,
      "abor": 5522,
      "disease": 5523,
      "size": 5524,
      "special": 5525,
      "fail": 5526,
      "olution": 5527,
      "changes": 5528,
      "mocr": 5529,
      "September": 5530,
      "young": 5531,
      "poly": 5532,
      "var": 5533,
      "box": 5534,
      "ctic": 5535,
      "rote": 5536,
      "August": 5537,
      "Cor": 5538,
      "close": 5539,
      "ont": 5540,
      "frequ": 5541,
      "money": 5542,
      "reading": 5543,
      "stit": 5544,
      "thus": 5545,
      "bert": 5546,
      "Chin": 5547,
      "Note": 5548,
      "holder": 5549,
      "acc": 5550,
      "consist": 5551,
      "ns": 5552,
      "otherwise": 5553,
      "lling": 5554,
      "lantic": 5555,
      "House": 5556,
      "infe": 5557,
      "','": 5558,
      "parents": 5559,
      "deta": 5560,
      "friends": 5561,
      "administr": 5562,
      "wat": 5563,
      "45": 5564,
      "rain": 5565,
      "urch": 5566,
      "premise": 5567,
      "attle": 5568,
      "cially": 5569,
      "isms": 5570,
      "increased": 5571,
      "tig": 5572,
      "deal": 5573,
      "established": 5574,
      "received": 5575,
      "games": 5576,
      "via": 5577,
      "effect": 5578,
      "please": 5579,
      "parti": 5580,
      "ond": 5581,
      "Ed": 5582,
      "vember": 5583,
      "evidence": 5584,
      "uts": 5585,
      "feder": 5586,
      "although": 5587,
      "track": 5588,
      "rul": 5589,
      "trict": 5590,
      "ker": 5591,
      "lat": 5592,
      "Its": 5593,
      "looking": 5594,
      "discover": 5595,
      "ctively": 5596,
      "mun": 5597,
      "ological": 5598,
      "iment": 5599,
      "cost": 5600,
      "zer": 5601,
      "someone": 5602,
      "sen": 5603,
      "July": 5604,
      "Octo": 5605,
      "bri": 5606,
      "November": 5607,
      "October": 5608,
      "iev": 5609,
      "Ser": 5610,
      "TV": 5611,
      "function": 5612,
      "liter": 5613,
      "mission": 5614,
      "needed": 5615,
      "65": 5616,
      "fair": 5617,
      "Atlantic": 5618,
      "fort": 5619,
      "ny": 5620,
      "33": 5621,
      "Thus": 5622,
      "Roman": 5623,
      "pay": 5624,
      "Chinese": 5625,
      "Kore": 5626,
      "Wal": 5627,
      "aft": 5628,
      "dev": 5629,
      "intro": 5630,
      "smaller": 5631,
      "ided": 5632,
      "ken": 5633,
      "nel": 5634,
      "ustri": 5635,
      "objective": 5636,
      "etc": 5637,
      "80": 5638,
      "neigh": 5639,
      "outside": 5640,
      "voc": 5641,
      "instead": 5642,
      "recogn": 5643,
      "legal": 5644,
      "ham": 5645,
      "William": 5646,
      "once": 5647,
      "musical": 5648,
      "tian": 5649,
      "central": 5650,
      "Did": 5651,
      "icy": 5652,
      "blood": 5653,
      "animals": 5654,
      "sof": 5655,
      "inten": 5656,
      "uture": 5657,
      "lled": 5658,
      "recorded": 5659,
      "built": 5660,
      "Western": 5661,
      "draw": 5662,
      "ring": 5663,
      "international": 5664,
      "ends": 5665,
      "sun": 5666,
      "ru": 5667,
      "male": 5668,
      "referred": 5669,
      "za": 5670,
      "emp": 5671,
      "irony": 5672,
      "suit": 5673,
      "cut": 5674,
      "indicates": 5675,
      "otype": 5676,
      "label": 5677,
      "community": 5678,
      "finan": 5679,
      "ky": 5680,
      "towards": 5681,
      "pair": 5682,
      "lying": 5683,
      "''": 5684,
      "gar": 5685,
      "Tw": 5686,
      "stere": 5687,
      "nuc": 5688,
      "concept": 5689,
      "sometimes": 5690,
      "Dece": 5691,
      "95": 5692,
      "rup": 5693,
      "taking": 5694,
      "playing": 5695,
      "urban": 5696,
      "During": 5697,
      "offensive": 5698,
      "published": 5699,
      "selves": 5700,
      "successful": 5701,
      "estim": 5702,
      "75": 5703,
      "wrote": 5704,
      "generally": 5705,
      "pressure": 5706,
      "ST": 5707,
      "guitar": 5708,
      "Britain": 5709,
      "target": 5710,
      "ico": 5711,
      "birth": 5712,
      "larger": 5713,
      "placeholder": 5714,
      "December": 5715,
      "Res": 5716,
      "ize": 5717,
      "70": 5718,
      "parts": 5719,
      "bot": 5720,
      "habit": 5721,
      "itch": 5722,
      "Who": 5723,
      "today": 5724,
      "release": 5725,
      "Po": 5726,
      "nation": 5727,
      "Spe": 5728,
      "wind": 5729,
      "produce": 5730,
      "Per": 5731,
      "gir": 5732,
      "plate": 5733,
      "county": 5734,
      "whose": 5735,
      "Dav": 5736,
      "System": 5737,
      "novel": 5738,
      "structure": 5739,
      "iter": 5740,
      "ape": 5741,
      "jud": 5742,
      "ique": 5743,
      "Mc": 5744,
      "oph": 5745,
      "aul": 5746,
      "belong": 5747,
      "idge": 5748,
      "writing": 5749,
      "enced": 5750,
      "mountain": 5751,
      "Article": 5752,
      "future": 5753,
      "Greek": 5754,
      "nal": 5755,
      "didn": 5756,
      "doesn": 5757,
      "brother": 5758,
      "90": 5759,
      "rac": 5760,
      "meaning": 5761,
      "polar": 5762,
      "profession": 5763,
      "Sou": 5764,
      "Min": 5765,
      "computer": 5766,
      "carbon": 5767,
      "seven": 5768,
      "done": 5769,
      "constr": 5770,
      "economic": 5771,
      "activity": 5772,
      "base": 5773,
      "ication": 5774,
      "sor": 5775,
      "Don": 5776,
      "Lat": 5777,
      "cient": 5778,
      "Hy": 5779,
      "2011": 5780,
      "employ": 5781,
      "spo": 5782,
      "Scot": 5783,
      "Choices": 5784,
      "aring": 5785,
      "Di": 5786,
      "earli": 5787,
      "ster": 5788,
      "San": 5789,
      "studied": 5790,
      "select": 5791,
      "Hol": 5792,
      "alifor": 5793,
      "teen": 5794,
      "fav": 5795,
      "blue": 5796,
      "cise": 5797,
      "worked": 5798,
      "create": 5799,
      "thought": 5800,
      "implies": 5801,
      "vention": 5802,
      "mole": 5803,
      "Trump": 5804,
      "style": 5805,
      "arily": 5806,
      "date": 5807,
      "aid": 5808,
      "doing": 5809,
      "consists": 5810,
      "according": 5811,
      "already": 5812,
      "istan": 5813,
      "followed": 5814,
      "Although": 5815,
      "themselves": 5816,
      "Apr": 5817,
      "shows": 5818,
      "ety": 5819,
      "personal": 5820,
      "southern": 5821,
      "alifornia": 5822,
      "attem": 5823,
      "AL": 5824,
      "almost": 5825,
      "longer": 5826,
      "accept": 5827,
      "pha": 5828,
      "Mex": 5829,
      "inc": 5830,
      "na": 5831,
      "diffic": 5832,
      "weights": 5833,
      "squ": 5834,
      "inal": 5835,
      "science": 5836,
      "arg": 5837,
      "recording": 5838,
      "iting": 5839,
      "aving": 5840,
      "wal": 5841,
      "ille": 5842,
      "2010": 5843,
      "agent": 5844,
      "2009": 5845,
      "wa": 5846,
      "ropolitan": 5847,
      "expected": 5848,
      "April": 5849,
      "bound": 5850,
      "UK": 5851,
      "ov": 5852,
      "books": 5853,
      "experience": 5854,
      "studies": 5855,
      "tax": 5856,
      "dig": 5857,
      "model": 5858,
      "seen": 5859,
      "founded": 5860,
      "introduc": 5861,
      "inside": 5862,
      "enj": 5863,
      "methods": 5864,
      "throughout": 5865,
      "broad": 5866,
      "himself": 5867,
      "pically": 5868,
      "California": 5869,
      "heat": 5870,
      "died": 5871,
      "utterance": 5872,
      "sover": 5873,
      "Pre": 5874,
      "risk": 5875,
      "avy": 5876,
      "ills": 5877,
      "treatment": 5878,
      "impossible": 5879,
      "tor": 5880,
      "complex": 5881,
      "surround": 5882,
      "Other": 5883,
      "stereotype": 5884,
      "dest": 5885,
      "ean": 5886,
      "astern": 5887,
      "utes": 5888,
      "County": 5889,
      "iation": 5890,
      "hours": 5891,
      "priv": 5892,
      "analy": 5893,
      "northern": 5894,
      "ander": 5895,
      "itself": 5896,
      "issue": 5897,
      "feature": 5898,
      "benef": 5899,
      "civil": 5900,
      "heart": 5901,
      "Phil": 5902,
      "media": 5903,
      "islands": 5904,
      "phone": 5905,
      "performed": 5906,
      "photo": 5907,
      "offer": 5908,
      "performance": 5909,
      "osp": 5910,
      "scre": 5911,
      "Dr": 5912,
      "wanted": 5913,
      "James": 5914,
      "ints": 5915,
      "increases": 5916,
      "service": 5917,
      "yard": 5918,
      "cities": 5919,
      "expression": 5920,
      "Island": 5921,
      "eign": 5922,
      "lym": 5923,
      "ration": 5924,
      "numerical": 5925,
      "suf": 5926,
      "ok": 5927,
      "culture": 5928,
      "wife": 5929,
      "bruary": 5930,
      "growth": 5931,
      "Recor": 5932,
      "ators": 5933,
      "Dan": 5934,
      "rown": 5935,
      "True": 5936,
      "cultural": 5937,
      "office": 5938,
      "Canada": 5939,
      "ored": 5940,
      "negotiation": 5941,
      "\"\"": 5942,
      "Gener": 5943,
      "item": 5944,
      "gets": 5945,
      "problems": 5946,
      "organisms": 5947,
      "average": 5948,
      "shire": 5949,
      "ying": 5950,
      "cade": 5951,
      "daugh": 5952,
      "February": 5953,
      "takes": 5954,
      "weight": 5955,
      "believ": 5956,
      "Where": 5957,
      "exact": 5958,
      "love": 5959,
      "Inter": 5960,
      "sw": 5961,
      "sovereign": 5962,
      "spr": 5963,
      "education": 5964,
      "igure": 5965,
      "Sun": 5966,
      "mid": 5967,
      "constit": 5968,
      "cro": 5969,
      "espe": 5970,
      "entire": 5971,
      "umb": 5972,
      "acters": 5973,
      "burg": 5974,
      "nic": 5975,
      "ye": 5976,
      "ror": 5977,
      "hib": 5978,
      "medical": 5979,
      "audi": 5980,
      "neighbor": 5981,
      "engine": 5982,
      "vestig": 5983,
      "99": 5984,
      "decl": 5985,
      "especially": 5986,
      "characters": 5987,
      "replaced": 5988,
      "center": 5989,
      "Su": 5990,
      "pers": 5991,
      "hom": 5992,
      "cancer": 5993,
      "happens": 5994,
      "content": 5995,
      "categories": 5996,
      "lies": 5997,
      "geograph": 5998,
      "ington": 5999,
      "Ret": 6000,
      "conver": 6001,
      "auto": 6002,
      "cil": 6003,
      "lines": 6004,
      "Comp": 6005,
      "Class": 6006,
      "ocean": 6007,
      "wr": 6008,
      "mach": 6009,
      "acid": 6010,
      "stop": 6011,
      "Air": 6012,
      "match": 6013,
      "poll": 6014,
      "akes": 6015,
      "typically": 6016,
      "focus": 6017,
      "Mary": 6018,
      "Que": 6019,
      "era": 6020,
      "rang": 6021,
      "moving": 6022,
      "involved": 6023,
      "sl": 6024,
      "enter": 6025,
      "reat": 6026,
      "containing": 6027,
      "equal": 6028,
      "president": 6029,
      "African": 6030,
      "Mich": 6031,
      "km": 6032,
      "stay": 6033,
      "occup": 6034,
      "loss": 6035,
      "ller": 6036,
      "31": 6037,
      "ders": 6038,
      "asking": 6039,
      "ament": 6040,
      "valid": 6041,
      "appropri": 6042,
      "Bill": 6043,
      "hind": 6044,
      "causes": 6045,
      "cular": 6046,
      "course": 6047,
      "Tur": 6048,
      "Ange": 6049,
      "thin": 6050,
      "global": 6051,
      "Pac": 6052,
      "Mal": 6053,
      "cases": 6054,
      "Alex": 6055,
      "caused": 6056,
      "85": 6057,
      "pen": 6058,
      "systems": 6059,
      "conf": 6060,
      "sat": 6061,
      "host": 6062,
      "financial": 6063,
      "normal": 6064,
      "commer": 6065,
      "mark": 6066,
      "Bu": 6067,
      "?),": 6068,
      "doc": 6069,
      "front": 6070,
      "Sam": 6071,
      "contr": 6072,
      "songs": 6073,
      "probably": 6074,
      "defined": 6075,
      "exited": 6076,
      "sib": 6077,
      "acts": 6078,
      "phrase": 6079,
      "Pat": 6080,
      "investig": 6081,
      "firewood": 6082,
      "climate": 6083,
      "gs": 6084,
      "approxim": 6085,
      "Russia": 6086,
      "restaur": 6087,
      "physical": 6088,
      "inci": 6089,
      "goes": 6090,
      "inated": 6091,
      "Reg": 6092,
      "prom": 6093,
      "Bel": 6094,
      "correctly": 6095,
      "tribute": 6096,
      "matter": 6097,
      "ulation": 6098,
      "lost": 6099,
      "Because": 6100,
      "black": 6101,
      "agree": 6102,
      "mand": 6103,
      "ampion": 6104,
      "effects": 6105,
      "David": 6106,
      "reed": 6107,
      "Of": 6108,
      "cand": 6109,
      "director": 6110,
      "Ok": 6111,
      "``": 6112,
      "apart": 6113,
      "consider": 6114,
      "tered": 6115,
      "radio": 6116,
      "club": 6117,
      "indicate": 6118,
      "reduc": 6119,
      "usive": 6120,
      "ock": 6121,
      "\"),": 6122,
      "stories": 6123,
      "white": 6124,
      "enate": 6125,
      "gave": 6126,
      "Park": 6127,
      "aries": 6128,
      "League": 6129,
      "36": 6130,
      "potential": 6131,
      "pun": 6132,
      "steps": 6133,
      "pul": 6134,
      "El": 6135,
      "False": 6136,
      "necess": 6137,
      "whole": 6138,
      "services": 6139,
      "commonly": 6140,
      "Democr": 6141,
      "Records": 6142,
      "corpor": 6143,
      "yer": 6144,
      "learn": 6145,
      "chol": 6146,
      "polarity": 6147,
      "puts": 6148,
      "37": 6149,
      "Tim": 6150,
      "User": 6151,
      "speed": 6152,
      "applied": 6153,
      "medi": 6154,
      "scen": 6155,
      "hold": 6156,
      "gives": 6157,
      "table": 6158,
      "jun": 6159,
      "190": 6160,
      "beginning": 6161,
      "simply": 6162,
      "Rich": 6163,
      "2008": 6164,
      "2013": 6165,
      "electric": 6166,
      "ulf": 6167,
      "relative": 6168,
      "School": 6169,
      "subst": 6170,
      "Why": 6171,
      "upon": 6172,
      "required": 6173,
      "market": 6174,
      "47": 6175,
      "coll": 6176,
      "compan": 6177,
      "metal": 6178,
      "earth": 6179,
      "ech": 6180,
      "2000": 6181,
      "Colle": 6182,
      "continued": 6183,
      "Pl": 6184,
      "flo": 6185,
      "Val": 6186,
      "bad": 6187,
      "federal": 6188,
      "studio": 6189,
      "gers": 6190,
      "ustry": 6191,
      "designed": 6192,
      "48": 6193,
      "trying": 6194,
      "bs": 6195,
      "getting": 6196,
      "daughter": 6197,
      "news": 6198,
      "actually": 6199,
      "hon": 6200,
      "White": 6201,
      "ping": 6202,
      "Pacific": 6203,
      "aint": 6204,
      "exer": 6205,
      "shop": 6206,
      "Tom": 6207,
      "George": 6208,
      "lam": 6209,
      "Mis": 6210,
      "Central": 6211,
      "hit": 6212,
      "shown": 6213,
      "mosp": 6214,
      "particles": 6215,
      "micro": 6216,
      "review": 6217,
      "Most": 6218,
      "arden": 6219,
      "teach": 6220,
      "bio": 6221,
      "Intern": 6222,
      "fill": 6223,
      "nomial": 6224,
      "singer": 6225,
      "gres": 6226,
      "prompt": 6227,
      "hood": 6228,
      "piece": 6229,
      "Two": 6230,
      "Paul": 6231,
      "lt": 6232,
      "gree": 6233,
      "speaker": 6234,
      "pir": 6235,
      "vation": 6236,
      "wall": 6237,
      "concent": 6238,
      "leading": 6239,
      "plays": 6240,
      "icit": 6241,
      "ining": 6242,
      "uk": 6243,
      "AN": 6244,
      "ouch": 6245,
      "regions": 6246,
      "fue": 6247,
      "liver": 6248,
      "forest": 6249,
      "Return": 6250,
      "Are": 6251,
      "neu": 6252,
      "39": 6253,
      "humans": 6254,
      "49": 6255,
      "Ital": 6256,
      "2007": 6257,
      "increasing": 6258,
      "uments": 6259,
      "resour": 6260,
      "string": 6261,
      "lives": 6262,
      "38": 6263,
      "Mor": 6264,
      "cret": 6265,
      "Wash": 6266,
      "tiz": 6267,
      "ensus": 6268,
      "football": 6269,
      "repe": 6270,
      "aspe": 6271,
      "famil": 6272,
      "Mac": 6273,
      "istics": 6274,
      "resistance": 6275,
      "atmosp": 6276,
      "individuals": 6277,
      "section": 6278,
      "Ire": 6279,
      "roy": 6280,
      "Emp": 6281,
      "chi": 6282,
      "widely": 6283,
      "ditions": 6284,
      "da": 6285,
      "dire": 6286,
      "ib": 6287,
      "Black": 6288,
      "describe": 6289,
      "Port": 6290,
      "inding": 6291,
      "Does": 6292,
      "pal": 6293,
      "added": 6294,
      "instance": 6295,
      "animal": 6296,
      "ucted": 6297,
      "changed": 6298,
      "stated": 6299,
      "acqu": 6300,
      "forces": 6301,
      "vill": 6302,
      "training": 6303,
      "Ma": 6304,
      "dicate": 6305,
      "green_": 6306,
      "appropriate": 6307,
      "divid": 6308,
      "fish": 6309,
      "International": 6310,
      "Fir": 6311,
      "independent": 6312,
      "cing": 6313,
      "mostly": 6314,
      "issues": 6315,
      "court": 6316,
      "ification": 6317,
      "cis": 6318,
      "soil": 6319,
      "older": 6320,
      "oxy": 6321,
      "itation": 6322,
      "Arab": 6323,
      "obtain": 6324,
      "deb": 6325,
      "partment": 6326,
      "earlier": 6327,
      "student": 6328,
      "seems": 6329,
      "rid": 6330,
      "influence": 6331,
      "AR": 6332,
      "approach": 6333,
      "Party": 6334,
      "condition": 6335,
      "Thom": 6336,
      "rich": 6337,
      "High": 6338,
      "beha": 6339,
      "Ir": 6340,
      "approximately": 6341,
      "pret": 6342,
      "edy": 6343,
      "prove": 6344,
      "objects": 6345,
      "boy": 6346,
      "award": 6347,
      "Bur": 6348,
      "tral": 6349,
      "mathem": 6350,
      "2006": 6351,
      "industry": 6352,
      "stage": 6353,
      "ades": 6354,
      "burn": 6355,
      "respectively": 6356,
      "ald": 6357,
      "behind": 6358,
      "calcul": 6359,
      "reaction": 6360,
      "ounced": 6361,
      "altern": 6362,
      "Ireland": 6363,
      "incorrect": 6364,
      "maintain": 6365,
      "ceed": 6366,
      "points": 6367,
      "entific": 6368,
      "rive": 6369,
      "happened": 6370,
      "dies": 6371,
      "separated": 6372,
      "Back": 6373,
      "mechan": 6374,
      "Des": 6375,
      "viol": 6376,
      "extra": 6377,
      "nas": 6378,
      "saw": 6379,
      "Empire": 6380,
      "college": 6381,
      "67": 6382,
      "gradu": 6383,
      "nes": 6384,
      "customer": 6385,
      "ications": 6386,
      "write": 6387,
      "conditions": 6388,
      "__": 6389,
      "iety": 6390,
      "pite": 6391,
      "lla": 6392,
      "regarding": 6393,
      "respect": 6394,
      "Washington": 6395,
      "movement": 6396,
      "sole": 6397,
      "films": 6398,
      "sold": 6399,
      "features": 6400,
      "address": 6401,
      "Roy": 6402,
      "surv": 6403,
      "defe": 6404,
      "trip": 6405,
      "phil": 6406,
      "technology": 6407,
      "safe": 6408,
      "additional": 6409,
      "disflu": 6410,
      "ires": 6411,
      "rd": 6412,
      "dou": 6413,
      "Italian": 6414,
      "ots": 6415,
      "debut": 6416,
      "ix": 6417,
      "producer": 6418,
      "mary": 6419,
      "oil": 6420,
      "cou": 6421,
      "network": 6422,
      "pread": 6423,
      "esti": 6424,
      "tribution": 6425,
      "eve": 6426,
      "protein": 6427,
      "returned": 6428,
      "aign": 6429,
      "2015": 6430,
      "products": 6431,
      "compl": 6432,
      "hydro": 6433,
      "path": 6434,
      "quick": 6435,
      "bes": 6436,
      "Indicate": 6437,
      "fiction": 6438,
      "slow": 6439,
      "brief": 6440,
      "ael": 6441,
      "metropolitan": 6442,
      "OR": 6443,
      "appoint": 6444,
      "rap": 6445,
      "bul": 6446,
      "fourth": 6447,
      "estimated": 6448,
      "avi": 6449,
      "directed": 6450,
      "tainment": 6451,
      "instances": 6452,
      "details": 6453,
      "religious": 6454,
      "professional": 6455,
      "purpose": 6456,
      "letter": 6457,
      "grand": 6458,
      "source": 6459,
      "difficult": 6460,
      "accur": 6461,
      "behavi": 6462,
      "visit": 6463,
      "understanding": 6464,
      "solution": 6465,
      "tice": 6466,
      "compris": 6467,
      "alpha": 6468,
      "emer": 6469,
      "names": 6470,
      "zy": 6471,
      "proved": 6472,
      "Jer": 6473,
      "jects": 6474,
      "oid": 6475,
      "smo": 6476,
      "needs": 6477,
      "soon": 6478,
      "cks": 6479,
      "faster": 6480,
      "Now": 6481,
      "ager": 6482,
      "2014": 6483,
      "screen": 6484,
      "counter": 6485,
      "AS": 6486,
      "reasonable": 6487,
      "relat": 6488,
      "arm": 6489,
      "AM": 6490,
      "race": 6491,
      "craft": 6492,
      "scient": 6493,
      "aut": 6494,
      "regular": 6495,
      "Latin": 6496,
      "eat": 6497,
      "rat": 6498,
      "nd": 6499,
      "Cam": 6500,
      "appeared": 6501,
      "hot": 6502,
      "distin": 6503,
      "[#": 6504,
      "Span": 6505,
      "vities": 6506,
      "yl": 6507,
      "Group": 6508,
      "explain": 6509,
      "anger": 6510,
      "mind": 6511,
      "bacter": 6512,
      "candid": 6513,
      "Cong": 6514,
      "gun": 6515,
      "clo": 6516,
      "attempt": 6517,
      "scientific": 6518,
      "Bay": 6519,
      "onom": 6520,
      "rew": 6521,
      "Italy": 6522,
      "2012": 6523,
      "composed": 6524,
      "originally": 6525,
      "evolution": 6526,
      "languages": 6527,
      "stant": 6528,
      "aps": 6529,
      "jour": 6530,
      "wrong": 6531,
      "sam": 6532,
      "favor": 6533,
      "decided": 6534,
      "representation": 6535,
      "primary": 6536,
      "llow": 6537,
      "Mexico": 6538,
      "ging": 6539,
      "azz": 6540,
      "Ple": 6541,
      "weeks": 6542,
      "district": 6543,
      "isl": 6544,
      "alone": 6545,
      "ables": 6546,
      "dete": 6547,
      "Ze": 6548,
      "price": 6549,
      "First": 6550,
      "refle": 6551,
      "lack": 6552,
      "AC": 6553,
      "itect": 6554,
      "trade": 6555,
      "format": 6556,
      "poor": 6557,
      "Statement": 6558,
      "territory": 6559,
      "eventually": 6560,
      "Russian": 6561,
      "experiment": 6562,
      "miles": 6563,
      "occurs": 6564,
      "factors": 6565,
      "learning": 6566,
      "Music": 6567,
      "Ham": 6568,
      "ilities": 6569,
      "wealth": 6570,
      "bol": 6571,
      "ift": 6572,
      "unique": 6573,
      "2005": 6574,
      "currently": 6575,
      "achiev": 6576,
      "ark": 6577,
      "Vir": 6578,
      "impact": 6579,
      "ancient": 6580,
      "ange": 6581,
      "famous": 6582,
      "inde": 6583,
      "Pal": 6584,
      "laun": 6585,
      "sem": 6586,
      "reality": 6587,
      "woman": 6588,
      "Mic": 6589,
      "32": 6590,
      "fast": 6591,
      "eastern": 6592,
      "77": 6593,
      "version": 6594,
      "Many": 6595,
      "enjoy": 6596,
      "500": 6597,
      "places": 6598,
      "psy": 6599,
      "tel": 6600,
      "vic": 6601,
      "Bal": 6602,
      "simple": 6603,
      "stri": 6604,
      "oxygen": 6605,
      "hous": 6606,
      "34": 6607,
      "Middle": 6608,
      "sister": 6609,
      "rist": 6610,
      "Korea": 6611,
      "Jew": 6612,
      "method": 6613,
      "plot": 6614,
      "Lu": 6615,
      "icip": 6616,
      "billion": 6617,
      "ranean": 6618,
      "stream": 6619,
      "Spanish": 6620,
      "Vi": 6621,
      "measure": 6622,
      "explains": 6623,
      "princi": 6624,
      "phen": 6625,
      "promo": 6626,
      "entially": 6627,
      "plas": 6628,
      "liqu": 6629,
      "critic": 6630,
      "liament": 6631,
      "traditional": 6632,
      "Ele": 6633,
      "pts": 6634,
      "ara": 6635,
      "deep": 6636,
      "packages": 6637,
      "elect": 6638,
      "Swed": 6639,
      "Paris": 6640,
      "bour": 6641,
      "polynomial": 6642,
      "presence": 6643,
      "iterranean": 6644,
      "Bro": 6645,
      "Sm": 6646,
      "exe": 6647,
      "genre": 6648,
      "activities": 6649,
      "Robert": 6650,
      "leader": 6651,
      "Ke": 6652,
      "distance": 6653,
      "\").": 6654,
      "ison": 6655,
      "reser": 6656,
      "meronym": 6657,
      "skin": 6658,
      "n1": 6659,
      "Red": 6660,
      "Option": 6661,
      "girl": 6662,
      "Christian": 6663,
      "cti": 6664,
      "Sol": 6665,
      "SI": 6666,
      "vice": 6667,
      "Go": 6668,
      "majority": 6669,
      "Sch": 6670,
      "wel": 6671,
      "project": 6672,
      "cold": 6673,
      "married": 6674,
      "Charles": 6675,
      "fos": 6676,
      "adap": 6677,
      "joined": 6678,
      "drum": 6679,
      "province": 6680,
      "station": 6681,
      "Northern": 6682,
      "minutes": 6683,
      "n2": 6684,
      "fit": 6685,
      "mix": 6686,
      "gal": 6687,
      "ieve": 6688,
      "borders": 6689,
      "Mr": 6690,
      "narr": 6691,
      "Los": 6692,
      "eight": 6693,
      "iled": 6694,
      "oted": 6695,
      "proposed": 6696,
      "document": 6697,
      "participants": 6698,
      "bordered": 6699,
      "Lou": 6700,
      "whom": 6701,
      "2001": 6702,
      "69": 6703,
      "artist": 6704,
      "prac": 6705,
      "mathemat": 6706,
      "2016": 6707,
      "mut": 6708,
      "hop": 6709,
      "player": 6710,
      "bring": 6711,
      "pian": 6712,
      "die": 6713,
      "Out": 6714,
      "inputs": 6715,
      "classified": 6716,
      "critical": 6717,
      "limited": 6718,
      "primarily": 6719,
      "Ho": 6720,
      "ands": 6721,
      "unt": 6722,
      "requirements": 6723,
      "owned": 6724,
      "campaign": 6725,
      "records": 6726,
      "atten": 6727,
      "ream": 6728,
      "Hen": 6729,
      "2004": 6730,
      "patient": 6731,
      "reverse": 6732,
      "ounds": 6733,
      "soft": 6734,
      "crim": 6735,
      "Sim": 6736,
      "lived": 6737,
      "transport": 6738,
      "Water": 6739,
      "DI": 6740,
      "87": 6741,
      "theory": 6742,
      "cool": 6743,
      "false": 6744,
      "competi": 6745,
      "insp": 6746,
      "extre": 6747,
      "UR": 6748,
      "omb": 6749,
      "decrease": 6750,
      "degree": 6751,
      "creating": 6752,
      "previously": 6753,
      "tributed": 6754,
      "matches": 6755,
      "signed": 6756,
      "link": 6757,
      "useum": 6758,
      "architect": 6759,
      "leep": 6760,
      "ston": 6761,
      "red_": 6762,
      "vey": 6763,
      "nine": 6764,
      "du": 6765,
      "ii": 6766,
      "growing": 6767,
      "itions": 6768,
      "virus": 6769,
      "iss": 6770,
      "resources": 6771,
      "fully": 6772,
      "centre": 6773,
      "fif": 6774,
      "Mil": 6775,
      "unit": 6776,
      "ference": 6777,
      "clearly": 6778,
      "suitable": 6779,
      "schools": 6780,
      "rights": 6781,
      "55": 6782,
      "serious": 6783,
      "tempor": 6784,
      "portion": 6785,
      "commercial": 6786,
      "ida": 6787,
      "People": 6788,
      "Bra": 6789,
      "kets": 6790,
      "bloc": 6791,
      "zone": 6792,
      "spent": 6793,
      "Also": 6794,
      "ij": 6795,
      "concat": 6796,
      "hic": 6797,
      "policy": 6798,
      "curity": 6799,
      "respond": 6800,
      "Award": 6801,
      "nu": 6802,
      "prior": 6803,
      "passed": 6804,
      "alu": 6805,
      "\\(": 6806,
      "Ap": 6807,
      "leave": 6808,
      "fat": 6809,
      "grav": 6810,
      "ampionship": 6811,
      "Cr": 6812,
      "idents": 6813,
      "identify": 6814,
      "commit": 6815,
      "historical": 6816,
      "flight": 6817,
      "standard": 6818,
      "hus": 6819,
      "din": 6820,
      "covered": 6821,
      "proced": 6822,
      "yet": 6823,
      "atmosphere": 6824,
      "holds": 6825,
      "killed": 6826,
      "insula": 6827,
      "Choose": 6828,
      "eg": 6829,
      "ospital": 6830,
      "university": 6831,
      "tric": 6832,
      "learned": 6833,
      "compar": 6834,
      "Jackson": 6835,
      "female": 6836,
      "lic": 6837,
      "reached": 6838,
      "64": 6839,
      "gi": 6840,
      "practi": 6841,
      "cutive": 6842,
      "reve": 6843,
      "actor": 6844,
      "saying": 6845,
      "1999": 6846,
      "More": 6847,
      "bran": 6848,
      "intended": 6849,
      "pletion": 6850,
      "oxide": 6851,
      "agon": 6852,
      "prevent": 6853,
      "color": 6854,
      "phy": 6855,
      "cross": 6856,
      "Michael": 6857,
      "specifically": 6858,
      "summary": 6859,
      "middle": 6860,
      "mom": 6861,
      "confl": 6862,
      "nature": 6863,
      "park": 6864,
      "aging": 6865,
      "Olym": 6866,
      "answerable": 6867,
      "Not": 6868,
      "economy": 6869,
      "warm": 6870,
      "access": 6871,
      "stor": 6872,
      "chall": 6873,
      "mur": 6874,
      "pict": 6875,
      "domin": 6876,
      "inj": 6877,
      "election": 6878,
      "believe": 6879,
      "Ob": 6880,
      "division": 6881,
      "restaurant": 6882,
      "improve": 6883,
      "Frank": 6884,
      "ufact": 6885,
      "ister": 6886,
      "Japanese": 6887,
      "sexual": 6888,
      "acher": 6889,
      "Gl": 6890,
      "becomes": 6891,
      "Mad": 6892,
      "exten": 6893,
      "Old": 6894,
      "instit": 6895,
      "Chic": 6896,
      "elected": 6897,
      "definite": 6898,
      "iso": 6899,
      "covers": 6900,
      "private": 6901,
      "DNA": 6902,
      "aland": 6903,
      "quality": 6904,
      "fix": 6905,
      "significantly": 6906,
      "demon": 6907,
      "utions": 6908,
      "neutral": 6909,
      "Mediterranean": 6910,
      "description": 6911,
      "Southern": 6912,
      "confir": 6913,
      "Please": 6914,
      "bab": 6915,
      "pto": 6916,
      "operations": 6917,
      "excl": 6918,
      "sources": 6919,
      "plane": 6920,
      "College": 6921,
      "?'": 6922,
      "ficient": 6923,
      "icult": 6924,
      "store": 6925,
      "society": 6926,
      "oppon": 6927,
      "integers": 6928,
      "municip": 6929,
      "values": 6930,
      "Green": 6931,
      "farm": 6932,
      "status": 6933,
      "interested": 6934,
      "89": 6935,
      "bridge": 6936,
      "everything": 6937,
      "Met": 6938,
      "rule": 6939,
      "hair": 6940,
      "tt": 6941,
      "exactly": 6942,
      "CD": 6943,
      "fru": 6944,
      "Mi": 6945,
      "assistant": 6946,
      "Tex": 6947,
      "cting": 6948,
      "].": 6949,
      "allowed": 6950,
      "seat": 6951,
      "rational": 6952,
      "clin": 6953,
      "inse": 6954,
      "introduced": 6955,
      "blue_": 6956,
      "Classify": 6957,
      "Im": 6958,
      "reported": 6959,
      "lif": 6960,
      "ica": 6961,
      "mes": 6962,
      "simpl": 6963,
      "painting": 6964,
      "pred": 6965,
      "garden": 6966,
      "Then": 6967,
      "OT": 6968,
      "compon": 6969,
      "tent": 6970,
      "citiz": 6971,
      "overall": 6972,
      "Ter": 6973,
      "hu": 6974,
      "waves": 6975,
      "variety": 6976,
      "pression": 6977,
      "44": 6978,
      "Gulf": 6979,
      "facts": 6980,
      "Richard": 6981,
      "han": 6982,
      "fight": 6983,
      "onto": 6984,
      "exhib": 6985,
      "resulting": 6986,
      "administrative": 6987,
      "Angeles": 6988,
      "sus": 6989,
      "ordin": 6990,
      "nucle": 6991,
      "Background": 6992,
      "finding": 6993,
      "oes": 6994,
      "Islam": 6995,
      "Antar": 6996,
      "felt": 6997,
      "none": 6998,
      "volume": 6999,
      "pa": 7000,
      "summer": 7001,
      "zed": 7002,
      "achieve": 7003,
      "Gover": 7004,
      "trees": 7005,
      "tracted": 7006,
      "Direct": 7007,
      "talk": 7008,
      "Ben": 7009,
      "unrelated": 7010,
      "mainly": 7011,
      "inhabit": 7012,
      "relatum": 7013,
      "Antarctic": 7014,
      "stren": 7015,
      "pi": 7016,
      "brought": 7017,
      "Islands": 7018,
      "grass": 7019,
      "artists": 7020,
      "ES": 7021,
      "manufact": 7022,
      "holding": 7023,
      "basic": 7024,
      "leaders": 7025,
      "initial": 7026,
      "republic": 7027,
      "talks": 7028,
      "examples": 7029,
      "northeast": 7030,
      "necessary": 7031,
      "immig": 7032,
      "watch": 7033,
      "particularly": 7034,
      "mob": 7035,
      "Mer": 7036,
      "helped": 7037,
      "aff": 7038,
      "estival": 7039,
      "floor": 7040,
      "hyper": 7041,
      "General": 7042,
      "companies": 7043,
      "agement": 7044,
      "vehic": 7045,
      "pical": 7046,
      "organization": 7047,
      "Church": 7048,
      "practice": 7049,
      "Play": 7050,
      "pel": 7051,
      "aj": 7052,
      "quickly": 7053,
      "univer": 7054,
      "***": 7055,
      "Both": 7056,
      "agno": 7057,
      "nearly": 7058,
      "Hum": 7059,
      "Cap": 7060,
      "genetic": 7061,
      "Iran": 7062,
      "Mel": 7063,
      "Chicago": 7064,
      "analysis": 7065,
      "magaz": 7066,
      "ows": 7067,
      "definition": 7068,
      "ission": 7069,
      "izing": 7070,
      "alternative": 7071,
      "oppos": 7072,
      "southwest": 7073,
      "predic": 7074,
      "Company": 7075,
      "ville": 7076,
      "streng": 7077,
      "amin": 7078,
      "interesting": 7079,
      "liquid": 7080,
      "drop": 7081,
      "separate": 7082,
      "AD": 7083,
      "ert": 7084,
      "cules": 7085,
      "andom": 7086,
      "mess": 7087,
      "core": 7088,
      "allows": 7089,
      "product": 7090,
      "3rd": 7091,
      "construction": 7092,
      "tom": 7093,
      "appears": 7094,
      "identity": 7095,
      "running": 7096,
      "difference": 7097,
      "CN": 7098,
      "ishing": 7099,
      "66": 7100,
      "announced": 7101,
      "giving": 7102,
      "argument": 7103,
      "template": 7104,
      "suggested": 7105,
      "sell": 7106,
      "Their": 7107,
      "Mountain": 7108,
      "ners": 7109,
      "instrument": 7110,
      "agricult": 7111,
      "touch": 7112,
      "uries": 7113,
      "maxim": 7114,
      "Zealand": 7115,
      "Sal": 7116,
      "Act": 7117,
      "rates": 7118,
      "Christ": 7119,
      "husband": 7120,
      "Acade": 7121,
      "AT": 7122,
      "cred": 7123,
      "reference": 7124,
      "Eli": 7125,
      "carry": 7126,
      "Saint": 7127,
      "constant": 7128,
      "Best": 7129,
      "2002": 7130,
      "Australian": 7131,
      "None": 7132,
      "presented": 7133,
      "nutri": 7134,
      "Stre": 7135,
      "foreign": 7136,
      "press": 7137,
      "northwest": 7138,
      "harm": 7139,
      "astr": 7140,
      "lie": 7141,
      "hall": 7142,
      "feed": 7143,
      "ider": 7144,
      "Cal": 7145,
      "achieved": 7146,
      "genes": 7147,
      "operation": 7148,
      "families": 7149,
      "fee": 7150,
      "Jim": 7151,
      "CO": 7152,
      "recently": 7153,
      "Flor": 7154,
      "IN": 7155,
      "build": 7156,
      "square": 7157,
      "Royal": 7158,
      "dead": 7159,
      "Fil": 7160,
      "Canadian": 7161,
      "Egy": 7162,
      "Joe": 7163,
      "uded": 7164,
      "Label": 7165,
      "immedi": 7166,
      "wave": 7167,
      "1st": 7168,
      "dol": 7169,
      "weather": 7170,
      "Olympic": 7171,
      "online": 7172,
      "graphy": 7173,
      "expect": 7174,
      "netic": 7175,
      "Alexander": 7176,
      ":\\": 7177,
      "snow": 7178,
      "candidate": 7179,
      "transfer": 7180,
      "positions": 7181,
      "1998": 7182,
      "philos": 7183,
      "olic": 7184,
      "happy": 7185,
      "inf": 7186,
      "classical": 7187,
      "97": 7188,
      "mas": 7189,
      "Sub": 7190,
      "Hell": 7191,
      "Completion": 7192,
      "stress": 7193,
      "Hypothesis": 7194,
      "ques": 7195,
      "church": 7196,
      "capt": 7197,
      "invest": 7198,
      "attention": 7199,
      "nit": 7200,
      "2003": 7201,
      "molecules": 7202,
      "brain": 7203,
      "atives": 7204,
      "Sci": 7205,
      "becoming": 7206,
      "iel": 7207,
      "Pri": 7208,
      "numerous": 7209,
      "planet": 7210,
      "itor": 7211,
      "izes": 7212,
      "prison": 7213,
      "61": 7214,
      "63": 7215,
      "n3": 7216,
      "follows": 7217,
      "2nd": 7218,
      "ona": 7219,
      "subsequ": 7220,
      "standing": 7221,
      "dry": 7222,
      "gold": 7223,
      "Grand": 7224,
      "Wil": 7225,
      "weak": 7226,
      "spring": 7227,
      "buy": 7228,
      "inhabitants": 7229,
      "isions": 7230,
      "pow": 7231,
      "conduct": 7232,
      "atoms": 7233,
      "IV": 7234,
      "tili": 7235,
      "showed": 7236,
      "alle": 7237,
      "laws": 7238,
      "cide": 7239,
      "essor": 7240,
      "southeast": 7241,
      "selected": 7242,
      "resh": 7243,
      "legisl": 7244,
      "nothing": 7245,
      "industri": 7246,
      "uan": 7247,
      "door": 7248,
      "Food": 7249,
      "exc": 7250,
      "gent": 7251,
      "reactions": 7252,
      "winter": 7253,
      "->": 7254,
      "kids": 7255,
      "sky": 7256,
      "extreme": 7257,
      "Henry": 7258,
      "largely": 7259,
      "highly": 7260,
      "diagno": 7261,
      "Law": 7262,
      "acade": 7263,
      "potentially": 7264,
      "Sony": 7265,
      "Scott": 7266,
      "identified": 7267,
      "aught": 7268,
      "evalu": 7269,
      "sand": 7270,
      "ester": 7271,
      "beg": 7272,
      "venue": 7273,
      "ites": 7274,
      "Americans": 7275,
      "threat": 7276,
      "wants": 7277,
      "sleep": 7278,
      "Enter": 7279,
      "88": 7280,
      "print": 7281,
      "disfluent": 7282,
      "Del": 7283,
      "random": 7284,
      "worldwide": 7285,
      "albums": 7286,
      "Army": 7287,
      "riage": 7288,
      "Louis": 7289,
      "colon": 7290,
      "Sovi": 7291,
      "Day": 7292,
      "materials": 7293,
      "Feder": 7294,
      "ada": 7295,
      "Pen": 7296,
      "sports": 7297,
      ".',": 7298,
      "expand": 7299,
      "Mag": 7300,
      "turned": 7301,
      "tex": 7302,
      "20th": 7303,
      "Hall": 7304,
      "tee": 7305,
      "peak": 7306,
      "Texas": 7307,
      "pine": 7308,
      "Congress": 7309,
      "opponent": 7310,
      "jazz": 7311,
      "missing": 7312,
      "divided": 7313,
      "ictor": 7314,
      "master": 7315,
      "regul": 7316,
      "incorpor": 7317,
      "spread": 7318,
      "emotion": 7319,
      "adop": 7320,
      "explicit": 7321,
      "derived": 7322,
      "Ca": 7323,
      "generation": 7324,
      "Each": 7325,
      "Chan": 7326,
      "Center": 7327,
      "Eastern": 7328,
      "worth": 7329,
      "bodies": 7330,
      "ously": 7331,
      "Os": 7332,
      "ius": 7333,
      "politic": 7334,
      "theat": 7335,
      "Super": 7336,
      "ening": 7337,
      "ron": 7338,
      "ising": 7339,
      "Den": 7340,
      "Fire": 7341,
      "behavior": 7342,
      "rail": 7343,
      "God": 7344,
      "Mass": 7345,
      "friction": 7346,
      "oting": 7347,
      "Hist": 7348,
      "decision": 7349,
      "rationale": 7350,
      "discussion": 7351,
      "aces": 7352,
      "noun": 7353,
      "remains": 7354,
      "tun": 7355,
      "settle": 7356,
      "Academy": 7357,
      "roll": 7358,
      "Ros": 7359,
      "solve": 7360,
      "supporting": 7361,
      "Sing": 7362,
      "conclusion": 7363,
      "sides": 7364,
      "thous": 7365,
      "responsible": 7366,
      "headquar": 7367,
      "except": 7368,
      "remained": 7369,
      "traits": 7370,
      "bey": 7371,
      "Loc": 7372,
      "41": 7373,
      "Cup": 7374,
      "cele": 7375,
      "Jul": 7376,
      "concatenate": 7377,
      "web": 7378,
      "answered": 7379,
      "contrast": 7380,
      "Lake": 7381,
      "revol": 7382,
      "volcan": 7383,
      "Virgin": 7384,
      "ests": 7385,
      "presents": 7386,
      "entities": 7387,
      "iff": 7388,
      "Station": 7389,
      "drive": 7390,
      "teacher": 7391,
      "police": 7392,
      "Under": 7393,
      "MI": 7394,
      "43": 7395,
      "yn": 7396,
      "ops": 7397,
      "nasty": 7398,
      "Queen": 7399,
      "Associ": 7400,
      "check": 7401,
      "Street": 7402,
      "Thomas": 7403,
      "aus": 7404,
      "Florida": 7405,
      "image": 7406,
      "players": 7407,
      "radiation": 7408,
      "supports": 7409,
      "entail": 7410,
      "tellig": 7411,
      "Kar": 7412,
      "administration": 7413,
      "57": 7414,
      "59": 7415,
      "iger": 7416,
      "apy": 7417,
      "Pur": 7418,
      "utch": 7419,
      "Peter": 7420,
      "olf": 7421,
      "span": 7422,
      "providing": 7423,
      "nuclear": 7424,
      "zo": 7425,
      ".\"?": 7426,
      "Bob": 7427,
      "oud": 7428,
      "focused": 7429,
      "Gold": 7430,
      "omer": 7431,
      "ception": 7432,
      "comment": 7433,
      "Philip": 7434,
      "territories": 7435,
      "Francis": 7436,
      "heavy": 7437,
      "consum": 7438,
      "ican": 7439,
      "abusive": 7440,
      "kin": 7441,
      "pet": 7442,
      "religion": 7443,
      "hospital": 7444,
      "Set1": 7445,
      "peror": 7446,
      "occurred": 7447,
      "Sha": 7448,
      "healthy": 7449,
      "bass": 7450,
      "preci": 7451,
      "Georg": 7452,
      "vit": 7453,
      "users": 7454,
      "opin": 7455,
      "findings": 7456,
      "plit": 7457,
      "rivers": 7458,
      "stars": 7459,
      "Soviet": 7460,
      "mir": 7461,
      "reli": 7462,
      "ria": 7463,
      "Cour": 7464,
      "19th": 7465,
      "Ty": 7466,
      "Council": 7467,
      "kil": 7468,
      "Set2": 7469,
      ".)": 7470,
      "suffer": 7471,
      "shares": 7472,
      "del": 7473,
      "teams": 7474,
      "hence": 7475,
      "Portug": 7476,
      "Irish": 7477,
      "affil": 7478,
      "fossil": 7479,
      "cape": 7480,
      "speaking": 7481,
      "hour": 7482,
      "meeting": 7483,
      ".\",": 7484,
      "males": 7485,
      "poses": 7486,
      "situated": 7487,
      "Link": 7488,
      "statements": 7489,
      "greg": 7490,
      "mel": 7491,
      "serve": 7492,
      "dog": 7493,
      "ki": 7494,
      "68": 7495,
      "tells": 7496,
      "idential": 7497,
      "Spain": 7498,
      "Pak": 7499,
      "belongs": 7500,
      "adverse": 7501,
      "vin": 7502,
      "berg": 7503,
      "ctors": 7504,
      "EC": 7505,
      "absor": 7506,
      "ophy": 7507,
      "native": 7508,
      "aled": 7509,
      "Str": 7510,
      "push": 7511,
      "attribute": 7512,
      "Metho": 7513,
      "\"@": 7514,
      "leads": 7515,
      "Democratic": 7516,
      "osis": 7517,
      "undred": 7518,
      "knew": 7519,
      "Oh": 7520,
      "bat": 7521,
      "glass": 7522,
      "math": 7523,
      "ka": 7524,
      "cohol": 7525,
      "fici": 7526,
      "finally": 7527,
      "figure": 7528,
      "dia": 7529,
      "III": 7530,
      "Abstract": 7531,
      "amed": 7532,
      "79": 7533,
      "diet": 7534,
      "mod": 7535,
      "smallest": 7536,
      "ental": 7537,
      "temperatures": 7538,
      "Bor": 7539,
      "Mart": 7540,
      "Scotland": 7541,
      "ski": 7542,
      "comedy": 7543,
      "infection": 7544,
      "advant": 7545,
      "formal": 7546,
      "stic": 7547,
      "Fl": 7548,
      "Ti": 7549,
      "trial": 7550,
      "Cro": 7551,
      "78": 7552,
      "census": 7553,
      "wild": 7554,
      "PC": 7555,
      "ole": 7556,
      "iling": 7557,
      "stone": 7558,
      "everyone": 7559,
      "anyone": 7560,
      "leaves": 7561,
      "rapid": 7562,
      "preferences": 7563,
      "sought": 7564,
      "occas": 7565,
      "populated": 7566,
      "begins": 7567,
      "4th": 7568,
      "hun": 7569,
      "Let": 7570,
      "extensive": 7571,
      "greatest": 7572,
      "organism": 7573,
      "tox": 7574,
      "maximum": 7575,
      "Van": 7576,
      "guess": 7577,
      "Hill": 7578,
      "sess": 7579,
      "transl": 7580,
      "itis": 7581,
      "189": 7582,
      "easily": 7583,
      "raised": 7584,
      "hear": 7585,
      "stitute": 7586,
      "interview": 7587,
      "continue": 7588,
      "osph": 7589,
      "Common": 7590,
      "42": 7591,
      "aspects": 7592,
      "episo": 7593,
      "Cath": 7594,
      "RNA": 7595,
      "helps": 7596,
      "literature": 7597,
      "tree": 7598,
      "influenced": 7599,
      "tiv": 7600,
      "promin": 7601,
      "programs": 7602,
      "Rob": 7603,
      "starting": 7604,
      "practic": 7605,
      "fect": 7606,
      "completed": 7607,
      "Over": 7608,
      "IC": 7609,
      "forts": 7610,
      "discovered": 7611,
      "developing": 7612,
      "Off": 7613,
      "sequence": 7614,
      "vance": 7615,
      "isol": 7616,
      "express": 7617,
      "ancy": 7618,
      "titles": 7619,
      "purch": 7620,
      "opened": 7621,
      "fewer": 7622,
      "fresh": 7623,
      "combined": 7624,
      "village": 7625,
      "association": 7626,
      "sympto": 7627,
      "aircraft": 7628,
      "sales": 7629,
      "Channel": 7630,
      "sett": 7631,
      "Art": 7632,
      "initially": 7633,
      "cru": 7634,
      "Austri": 7635,
      "ivity": 7636,
      "arios": 7637,
      "rey": 7638,
      "supply": 7639,
      "dioxide": 7640,
      "Fol": 7641,
      "CNN": 7642,
      "Pakistan": 7643,
      "gle": 7644,
      "schol": 7645,
      "satis": 7646,
      "paragraphs": 7647,
      "establish": 7648,
      "uth": 7649,
      "encour": 7650,
      "umn": 7651,
      "46": 7652,
      "bank": 7653,
      "celebr": 7654,
      "chief": 7655,
      "imal": 7656,
      "ets": 7657,
      "theastern": 7658,
      "cars": 7659,
      "tto": 7660,
      "reduced": 7661,
      "Du": 7662,
      "trait": 7663,
      "collection": 7664,
      "scenarios": 7665,
      "1997": 7666,
      "oute": 7667,
      "scientists": 7668,
      "Long": 7669,
      "machine": 7670,
      "Braz": 7671,
      "possib": 7672,
      "movies": 7673,
      "observed": 7674,
      "rocks": 7675,
      "hur": 7676,
      "fa": 7677,
      "Figure": 7678,
      "solid": 7679,
      "bow": 7680,
      "talking": 7681,
      "completely": 7682,
      "isn": 7683,
      "claims": 7684,
      "Studi": 7685,
      "symbol": 7686,
      "Che": 7687,
      "studying": 7688,
      "wing": 7689,
      "\"?": 7690,
      "iron": 7691,
      "Bet": 7692,
      "astic": 7693,
      "lake": 7694,
      "Bas": 7695,
      "fifth": 7696,
      "Greece": 7697,
      "featured": 7698,
      "FA": 7699,
      "processes": 7700,
      "younger": 7701,
      "relatively": 7702,
      "tif": 7703,
      "query": 7704,
      "SE": 7705,
      "Mark": 7706,
      "diseases": 7707,
      "va": 7708,
      "contact": 7709,
      "expressed": 7710,
      "cycle": 7711,
      "ell": 7712,
      "oles": 7713,
      "illy": 7714,
      "tware": 7715,
      "chance": 7716,
      "Sweden": 7717,
      "pool": 7718,
      "pron": 7719,
      "OG": 7720,
      "units": 7721,
      "Dutch": 7722,
      "effective": 7723,
      "Poland": 7724,
      "bets": 7725,
      "Bost": 7726,
      "Victor": 7727,
      "charge": 7728,
      "spoken": 7729,
      "Hu": 7730,
      "URL": 7731,
      "53": 7732,
      "orial": 7733,
      "connected": 7734,
      "alcohol": 7735,
      "layer": 7736,
      "anned": 7737,
      "plans": 7738,
      "aden": 7739,
      "phas": 7740,
      "surrounding": 7741,
      "rise": 7742,
      "Jose": 7743,
      "aming": 7744,
      "rogen": 7745,
      "plement": 7746,
      "1996": 7747,
      "property": 7748,
      "believed": 7749,
      "Boston": 7750,
      "dance": 7751,
      "nie": 7752,
      "1970s": 7753,
      "lyn": 7754,
      "lip": 7755,
      "army": 7756,
      "magazine": 7757,
      "poser": 7758,
      "continental": 7759,
      "pollution": 7760,
      "dominant": 7761,
      "plat": 7762,
      "factor": 7763,
      "sounds": 7764,
      "shor": 7765,
      "offee": 7766,
      "Big": 7767,
      "tific": 7768,
      "District": 7769,
      "Top": 7770,
      "Sup": 7771,
      "neighbors": 7772,
      "referring": 7773,
      "narrator": 7774,
      "matic": 7775,
      "supported": 7776,
      "thr": 7777,
      "Brazil": 7778,
      "frequency": 7779,
      "clean": 7780,
      "rot": 7781,
      "distinct": 7782,
      "veget": 7783,
      "Sil": 7784,
      "clinical": 7785,
      "beth": 7786,
      "gases": 7787,
      "eyes": 7788,
      "pieces": 7789,
      "composer": 7790,
      "clar": 7791,
      "marriage": 7792,
      "destroy": 7793,
      "1991": 7794,
      "league": 7795,
      "anta": 7796,
      "hundred": 7797,
      "Wind": 7798,
      "uel": 7799,
      "Jones": 7800,
      "ustice": 7801,
      "asts": 7802,
      "decreases": 7803,
      "iday": 7804,
      "determined": 7805,
      "Tra": 7806,
      "5th": 7807,
      "classes": 7808,
      "newsp": 7809,
      "dense": 7810,
      "leaving": 7811,
      "Sur": 7812,
      "300": 7813,
      "sched": 7814,
      "marked": 7815,
      "Sto": 7816,
      "ote": 7817,
      "feet": 7818,
      "treated": 7819,
      "hypo": 7820,
      "setting": 7821,
      "closer": 7822,
      "Eliza": 7823,
      "murder": 7824,
      "challeng": 7825,
      "assess": 7826,
      "scri": 7827,
      "stead": 7828,
      "Nether": 7829,
      "Cas": 7830,
      "Rome": 7831,
      "repeated": 7832,
      "ya": 7833,
      "claimed": 7834,
      "dens": 7835,
      "sport": 7836,
      "iden": 7837,
      "replace": 7838,
      "tin": 7839,
      "differences": 7840,
      "'?": 7841,
      "83": 7842,
      "ube": 7843,
      "procedures": 7844,
      "parent": 7845,
      "requires": 7846,
      "pattern": 7847,
      "recognized": 7848,
      "sey": 7849,
      "electron": 7850,
      "closed": 7851,
      "bill": 7852,
      "formerly": 7853,
      "sities": 7854,
      "direction": 7855,
      "Among": 7856,
      "shape": 7857,
      "Muslim": 7858,
      "Sum": 7859,
      "lowing": 7860,
      "bin": 7861,
      "divers": 7862,
      "Star": 7863,
      "gestion": 7864,
      "minor": 7865,
      "situational": 7866,
      "appointed": 7867,
      "1990": 7868,
      "device": 7869,
      "eds": 7870,
      "monarch": 7871,
      "Columb": 7872,
      "quarter": 7873,
      "1950": 7874,
      "Micro": 7875,
      "protect": 7876,
      "vocal": 7877,
      "doctor": 7878,
      "exercise": 7879,
      "ba": 7880,
      "concluded": 7881,
      "Association": 7882,
      "Wat": 7883,
      "completion": 7884,
      "secret": 7885,
      "ga": 7886,
      "characteristics": 7887,
      "residents": 7888,
      "agreement": 7889,
      "icine": 7890,
      "blem": 7891,
      "account": 7892,
      "2017": 7893,
      "buildings": 7894,
      "BA": 7895,
      "damage": 7896,
      "som": 7897,
      "grant": 7898,
      "Boy": 7899,
      "gment": 7900,
      "involves": 7901,
      "tend": 7902,
      "gression": 7903,
      "Mountains": 7904,
      "electronic": 7905,
      "Mike": 7906,
      "frequently": 7907,
      "ME": 7908,
      "Isra": 7909,
      "'],": 7910,
      "forced": 7911,
      "igned": 7912,
      "Cy": 7913,
      "ened": 7914,
      "induc": 7915,
      "manager": 7916,
      "rian": 7917,
      "dependent": 7918,
      "ull": 7919,
      "card": 7920,
      "liber": 7921,
      "bacteria": 7922,
      "beliefs": 7923,
      "Jewish": 7924,
      "Content": 7925,
      "demand": 7926,
      "reti": 7927,
      "attacks": 7928,
      "Fer": 7929,
      "Lo": 7930,
      "Department": 7931,
      "ideas": 7932,
      "provin": 7933,
      "==": 7934,
      "Luc": 7935,
      "arrow": 7936,
      "Er": 7937,
      "twice": 7938,
      "oma": 7939,
      "prep": 7940,
      "voice": 7941,
      "remaining": 7942,
      "affect": 7943,
      "tur": 7944,
      "ashion": 7945,
      "ingu": 7946,
      "circu": 7947,
      "selling": 7948,
      "bath": 7949,
      "infl": 7950,
      "Pick": 7951,
      "immune": 7952,
      "properties": 7953,
      "1994": 7954,
      "morning": 7955,
      "emo": 7956,
      "ises": 7957,
      "Second": 7958,
      "fruit": 7959,
      "encies": 7960,
      "winning": 7961,
      "Sat": 7962,
      "tum": 7963,
      "adium": 7964,
      "tood": 7965,
      "ota": 7966,
      "Lin": 7967,
      "contract": 7968,
      "solo": 7969,
      "\\)": 7970,
      "opposite": 7971,
      "Well": 7972,
      "labe": 7973,
      "1995": 7974,
      "auti": 7975,
      "Rock": 7976,
      "imag": 7977,
      "kingdom": 7978,
      "Commun": 7979,
      "strength": 7980,
      "Use": 7981,
      "command": 7982,
      "amm": 7983,
      "Mat": 7984,
      "Republican": 7985,
      "couple": 7986,
      "affected": 7987,
      "enty": 7988,
      "Bud": 7989,
      "experienced": 7990,
      "distribution": 7991,
      "Kim": 7992,
      "capac": 7993,
      "Disney": 7994,
      "Brown": 7995,
      "efforts": 7996,
      "acting": 7997,
      "bud": 7998,
      "rare": 7999,
      "pti": 8000,
      "converted": 8001,
      "interrup": 8002,
      "competition": 8003,
      "Just": 8004,
      "Elizabeth": 8005,
      "chos": 8006,
      "forward": 8007,
      "negotiate": 8008,
      "internal": 8009,
      "Netherlands": 8010,
      "evol": 8011,
      "coffee": 8012,
      "basis": 8013,
      "asy": 8014,
      "Tri": 8015,
      "mental": 8016,
      "depending": 8017,
      "Thank": 8018,
      "viral": 8019,
      "basket": 8020,
      "SA": 8021,
      "UN": 8022,
      "aval": 8023,
      "reasons": 8024,
      "temporary": 8025,
      "conflict": 8026,
      "ethnic": 8027,
      "serving": 8028,
      "code": 8029,
      "items": 8030,
      "parties": 8031,
      "genus": 8032,
      "CI": 8033,
      "chro": 8034,
      "bly": 8035,
      "symptoms": 8036,
      "Our": 8037,
      "izations": 8038,
      "Found": 8039,
      "lung": 8040,
      "believes": 8041,
      "index": 8042,
      "Awards": 8043,
      "Battle": 8044,
      "1992": 8045,
      "battle": 8046,
      "security": 8047,
      "pick": 8048,
      "causing": 8049,
      "CA": 8050,
      "psych": 8051,
      "whereas": 8052,
      "Rad": 8053,
      "eral": 8054,
      "staff": 8055,
      "Hor": 8056,
      "Premise": 8057,
      "paid": 8058,
      "stim": 8059,
      "immediately": 8060,
      "thir": 8061,
      "bell": 8062,
      "subjects": 8063,
      "concentration": 8064,
      "Bow": 8065,
      "Ut": 8066,
      "forming": 8067,
      "ships": 8068,
      "creation": 8069,
      "ained": 8070,
      "runs": 8071,
      "acquired": 8072,
      "listed": 8073,
      "dim": 8074,
      "adult": 8075,
      "despite": 8076,
      "uff": 8077,
      "respir": 8078,
      "estic": 8079,
      "thro": 8080,
      "decide": 8081,
      "noted": 8082,
      "fuels": 8083,
      "immun": 8084,
      "anc": 8085,
      "models": 8086,
      "parliament": 8087,
      "fusion": 8088,
      "conducted": 8089,
      "58": 8090,
      "centuries": 8091,
      "strug": 8092,
      "icated": 8093,
      "roles": 8094,
      "Asian": 8095,
      "ua": 8096,
      "Korean": 8097,
      "industrial": 8098,
      "benefits": 8099,
      "inspired": 8100,
      "junct": 8101,
      "musician": 8102,
      "Columbia": 8103,
      "ALOG": 8104,
      "Problem": 8105,
      "Court": 8106,
      "moves": 8107,
      "structured": 8108,
      "wed": 8109,
      "proteins": 8110,
      "Arch": 8111,
      "Ye": 8112,
      "DS": 8113,
      "speech": 8114,
      "apple": 8115,
      "demonstr": 8116,
      "Finding": 8117,
      "demo": 8118,
      "Net": 8119,
      "Ve": 8120,
      "Method": 8121,
      "punk": 8122,
      "73": 8123,
      "Good": 8124,
      "orches": 8125,
      "Only": 8126,
      "alg": 8127,
      "jected": 8128,
      "Au": 8129,
      "grew": 8130,
      "mountains": 8131,
      "scale": 8132,
      "milk": 8133,
      "oldest": 8134,
      "double": 8135,
      "eye": 8136,
      "EP": 8137,
      "campsite": 8138,
      "Cub": 8139,
      "onia": 8140,
      "anal": 8141,
      "tall": 8142,
      "aling": 8143,
      "ears": 8144,
      "contained": 8145,
      "Pan": 8146,
      "'{": 8147,
      "1980s": 8148,
      "songwriter": 8149,
      "cum": 8150,
      "software": 8151,
      "environmental": 8152,
      "rees": 8153,
      "alities": 8154,
      "regarded": 8155,
      "severe": 8156,
      "alk": 8157,
      "sugar": 8158,
      "load": 8159,
      "density": 8160,
      "street": 8161,
      "waste": 8162,
      "Belg": 8163,
      "apor": 8164,
      "guitarist": 8165,
      "Nations": 8166,
      "vive": 8167,
      "Penn": 8168,
      "upper": 8169,
      "cardi": 8170,
      "consisting": 8171,
      "Like": 8172,
      "beach": 8173,
      "grees": 8174,
      "Soci": 8175,
      "mitted": 8176,
      "Output": 8177,
      "fle": 8178,
      "chain": 8179,
      "adjunct": 8180,
      "eff": 8181,
      "collabor": 8182,
      "DIALOG": 8183,
      "mouth": 8184,
      "intellig": 8185,
      "asure": 8186,
      "accurate": 8187,
      "Smith": 8188,
      "Entertainment": 8189,
      "notable": 8190,
      "brevi": 8191,
      "portun": 8192,
      "grap": 8193,
      "medium": 8194,
      "bought": 8195,
      "dra": 8196,
      "mainland": 8197,
      "management": 8198,
      "waters": 8199,
      "chester": 8200,
      "renew": 8201,
      "comic": 8202,
      "racial": 8203,
      "Time": 8204,
      "ena": 8205,
      "lia": 8206,
      "abs": 8207,
      "neither": 8208,
      "bands": 8209,
      "returns": 8210,
      "98": 8211,
      "Rol": 8212,
      "tissue": 8213,
      "suggestion": 8214,
      "Hel": 8215,
      "coach": 8216,
      "firm": 8217,
      "ratio": 8218,
      "/-": 8219,
      "Ken": 8220,
      "sn": 8221,
      "tried": 8222,
      "abbrevi": 8223,
      "finished": 8224,
      "relations": 8225,
      "quite": 8226,
      "restr": 8227,
      "ero": 8228,
      "Donald": 8229,
      "thinking": 8230,
      "n4": 8231,
      "ghan": 8232,
      "bedroom": 8233,
      "sixth": 8234,
      "searching": 8235,
      "baby": 8236,
      "Indon": 8237,
      "Indones": 8238,
      "56": 8239,
      "folk": 8240,
      "exchange": 8241,
      "Peninsula": 8242,
      "degrees": 8243,
      "kine": 8244,
      "yards": 8245,
      "visual": 8246,
      "appearance": 8247,
      "passes": 8248,
      "mers": 8249,
      "combination": 8250,
      "----": 8251,
      "argu": 8252,
      "reduce": 8253,
      "shared": 8254,
      "tile": 8255,
      "describing": 8256,
      "afford": 8257,
      "municipality": 8258,
      "preser": 8259,
      "electricity": 8260,
      "score": 8261,
      "Would": 8262,
      "fashion": 8263,
      "Carol": 8264,
      "Tor": 8265,
      "Norway": 8266,
      "54": 8267,
      "measured": 8268,
      "iding": 8269,
      "mig": 8270,
      "experiences": 8271,
      "nations": 8272,
      "ili": 8273,
      "vote": 8274,
      "discusses": 8275,
      "avoid": 8276,
      "variable": 8277,
      "dynasty": 8278,
      "kers": 8279,
      "Hi": 8280,
      "convention": 8281,
      "intendo": 8282,
      "effort": 8283,
      "linked": 8284,
      "Virginia": 8285,
      "ativity": 8286,
      "Hello": 8287,
      "%)": 8288,
      "locations": 8289,
      "executive": 8290,
      "fig": 8291,
      "controlled": 8292,
      "memory": 8293,
      "TH": 8294,
      "lope": 8295,
      "broadcast": 8296,
      "Far": 8297,
      "birds": 8298,
      "Fore": 8299,
      "tery": 8300,
      "hyth": 8301,
      "opportun": 8302,
      "serves": 8303,
      "py": 8304,
      "fuel": 8305,
      "iti": 8306,
      "haps": 8307,
      "51": 8308,
      "chair": 8309,
      "Sir": 8310,
      "dream": 8311,
      "drama": 8312,
      "agriculture": 8313,
      "goals": 8314,
      "Later": 8315,
      "houses": 8316,
      "rules": 8317,
      "concert": 8318,
      "cook": 8319,
      "Love": 8320,
      "ries": 8321,
      "democr": 8322,
      "itchen": 8323,
      "calls": 8324,
      "tests": 8325,
      "Berlin": 8326,
      "Ira": 8327,
      "eigh": 8328,
      "Paragraph": 8329,
      "Sand": 8330,
      "assume": 8331,
      "kinds": 8332,
      "Haw": 8333,
      "layers": 8334,
      "attr": 8335,
      "chart": 8336,
      "Wales": 8337,
      "Georgia": 8338,
      "Minister": 8339,
      "pub": 8340,
      "wherever": 8341,
      "Obama": 8342,
      "occasion": 8343,
      "annual": 8344,
      "remember": 8345,
      "gency": 8346,
      "coal": 8347,
      "apply": 8348,
      "continues": 8349,
      "labor": 8350,
      "equip": 8351,
      "spir": 8352,
      "failed": 8353,
      "orders": 8354,
      "1960s": 8355,
      "Fact": 8356,
      "cel": 8357,
      "ams": 8358,
      "1993": 8359,
      "Finland": 8360,
      "chromo": 8361,
      "represents": 8362,
      "longest": 8363,
      "Three": 8364,
      "exhibits": 8365,
      "expensive": 8366,
      "endo": 8367,
      "actress": 8368,
      "aking": 8369,
      "Firewood": 8370,
      "Nintendo": 8371,
      "iques": 8372,
      "driving": 8373,
      "\\\"": 8374,
      "abol": 8375,
      "hibit": 8376,
      "Prince": 8377,
      "pressed": 8378,
      "adopted": 8379,
      "wonder": 8380,
      "gressive": 8381,
      "synthesis": 8382,
      "conve": 8383,
      "generated": 8384,
      "rent": 8385,
      "bone": 8386,
      "stra": 8387,
      "drome": 8388,
      "integr": 8389,
      "terror": 8390,
      "fell": 8391,
      "harmful": 8392,
      "explicitly": 8393,
      "unknown": 8394,
      "survive": 8395,
      "tool": 8396,
      "phosph": 8397,
      "52": 8398,
      "cycl": 8399,
      "Ver": 8400,
      "Mur": 8401,
      "Ice": 8402,
      "define": 8403,
      "shot": 8404,
      "structures": 8405,
      "recomm": 8406,
      "vacc": 8407,
      "BI": 8408,
      "Rom": 8409,
      "Turk": 8410,
      "Egypt": 8411,
      "elim": 8412,
      "Afghan": 8413,
      "400": 8414,
      "1945": 8415,
      "Despite": 8416,
      "correspon": 8417,
      "Ill": 8418,
      "itu": 8419,
      "benefit": 8420,
      "surrounded": 8421,
      "Valley": 8422,
      "Secret": 8423,
      "NF": 8424,
      "fan": 8425,
      "isation": 8426,
      "kid": 8427,
      "mobile": 8428,
      "suppl": 8429,
      "AI": 8430,
      "observ": 8431,
      "authority": 8432,
      "regional": 8433,
      "opposed": 8434,
      "inations": 8435,
      "fare": 8436,
      "officer": 8437,
      "iance": 8438,
      "piano": 8439,
      "Wall": 8440,
      "earthqu": 8441,
      "uting": 8442,
      "motor": 8443,
      "importance": 8444,
      "easy": 8445,
      "keeping": 8446,
      "Catholic": 8447,
      "aven": 8448,
      "cope": 8449,
      "sec": 8450,
      "quanti": 8451,
      "86": 8452,
      "kitchen": 8453,
      "composition": 8454,
      "ales": 8455,
      "emotions": 8456,
      "heard": 8457,
      "ado": 8458,
      "Science": 8459,
      "Fur": 8460,
      "musicians": 8461,
      "dogs": 8462,
      "adults": 8463,
      "Jes": 8464,
      "Film": 8465,
      "Wood": 8466,
      "chosen": 8467,
      "Any": 8468,
      "offered": 8469,
      "bles": 8470,
      "purposes": 8471,
      "Following": 8472,
      "closely": 8473,
      "Tit": 8474,
      "vict": 8475,
      "chemicals": 8476,
      "71": 8477,
      "Han": 8478,
      "muscle": 8479,
      "yle": 8480,
      "defeated": 8481,
      "uras": 8482,
      "vac": 8483,
      "officials": 8484,
      "ret": 8485,
      "distingu": 8486,
      "uters": 8487,
      "circuit": 8488,
      "connection": 8489,
      "latter": 8490,
      "iana": 8491,
      "citizens": 8492,
      "accepted": 8493,
      "mill": 8494,
      "Broad": 8495,
      "seman": 8496,
      "faces": 8497,
      "utterances": 8498,
      "academic": 8499,
      "Down": 8500,
      "syl": 8501,
      "URLs": 8502,
      "daily": 8503,
      "museum": 8504,
      "180": 8505,
      "useful": 8506,
      "Championship": 8507,
      "gained": 8508,
      "Even": 8509,
      "aker": 8510,
      "prise": 8511,
      "icts": 8512,
      "lyr": 8513,
      "Coast": 8514,
      "iments": 8515,
      "greenhouse": 8516,
      "gravity": 8517,
      "Purpose": 8518,
      "receive": 8519,
      "branch": 8520,
      "mathematical": 8521,
      "judge": 8522,
      "zz": 8523,
      "moment": 8524,
      "cam": 8525,
      "kept": 8526,
      "workers": 8527,
      "swe": 8528,
      "Internet": 8529,
      "diversity": 8530,
      "testing": 8531,
      "hydrogen": 8532,
      "modif": 8533,
      "qual": 8534,
      "tons": 8535,
      "Mem": 8536,
      "passing": 8537,
      "76": 8538,
      "ito": 8539,
      "sort": 8540,
      "anda": 8541,
      "Div": 8542,
      "eating": 8543,
      "shel": 8544,
      "BS": 8545,
      "autiful": 8546,
      "patho": 8547,
      "cry": 8548,
      "techniques": 8549,
      "3x": 8550,
      "USER": 8551,
      "dates": 8552,
      "chest": 8553,
      "PS": 8554,
      "danger": 8555,
      "functions": 8556,
      "EU": 8557,
      "resulted": 8558,
      "dipl": 8559,
      "rank": 8560,
      "height": 8561,
      "Jac": 8562,
      "ironic": 8563,
      "achuse": 8564,
      "cin": 8565,
      "Could": 8566,
      "oul": 8567,
      "ador": 8568,
      "+/-": 8569,
      "ita": 8570,
      "phrases": 8571,
      "Cur": 8572,
      "domestic": 8573,
      "communication": 8574,
      "bean": 8575,
      "represented": 8576,
      "Buyer": 8577,
      "Every": 8578,
      "edition": 8579,
      ");": 8580,
      "Institute": 8581,
      "Iraq": 8582,
      "journal": 8583,
      "Game": 8584,
      "ronic": 8585,
      "81": 8586,
      "spend": 8587,
      "Utter": 8588,
      "anec": 8589,
      "Utterance": 8590,
      "gather": 8591,
      "ores": 8592,
      "ishes": 8593,
      "succeed": 8594,
      "decreased": 8595,
      "iller": 8596,
      "constitution": 8597,
      "comprises": 8598,
      "ocy": 8599,
      "Isa": 8600,
      "mist": 8601,
      "offers": 8602,
      "igan": 8603,
      "1989": 8604,
      "brand": 8605,
      "binding": 8606,
      "digital": 8607,
      "1980": 8608,
      "Microsoft": 8609,
      "entertainment": 8610,
      "Jud": 8611,
      "membership": 8612,
      "ieval": 8613,
      "Land": 8614,
      "phase": 8615,
      "Dou": 8616,
      "filled": 8617,
      "Joseph": 8618,
      "transition": 8619,
      "sens": 8620,
      "operating": 8621,
      "lect": 8622,
      "involve": 8623,
      "Main": 8624,
      "diverse": 8625,
      "Massachuse": 8626,
      "satisf": 8627,
      "Mid": 8628,
      "logical": 8629,
      "agreed": 8630,
      "behave": 8631,
      "beyond": 8632,
      "apers": 8633,
      "Trans": 8634,
      "Prov": 8635,
      "entirely": 8636,
      "Antarctica": 8637,
      "looked": 8638,
      "ava": 8639,
      "dram": 8640,
      "console": 8641,
      "removed": 8642,
      "Seller": 8643,
      "Child": 8644,
      "capacity": 8645,
      "archi": 8646,
      "extremely": 8647,
      "atell": 8648,
      "CE": 8649,
      "Senate": 8650,
      "Bre": 8651,
      "instruments": 8652,
      "Kong": 8653,
      "crow": 8654,
      "note": 8655,
      "intr": 8656,
      "notion": 8657,
      "vary": 8658,
      "Society": 8659,
      "wasn": 8660,
      "93": 8661,
      "Hung": 8662,
      "archipel": 8663,
      "hands": 8664,
      "preference": 8665,
      "revealed": 8666,
      "dote": 8667,
      "multiply": 8668,
      "request": 8669,
      "mac": 8670,
      "Phone": 8671,
      "ju": 8672,
      "wan": 8673,
      "allowing": 8674,
      "Fre": 8675,
      "ule": 8676,
      "debate": 8677,
      "ux": 8678,
      "react": 8679,
      "heavi": 8680,
      "ultim": 8681,
      "vert": 8682,
      "gone": 8683,
      "ady": 8684,
      "Ven": 8685,
      "verb": 8686,
      "starts": 8687,
      "toward": 8688,
      "universities": 8689,
      "cow": 8690,
      "itzer": 8691,
      "tts": 8692,
      "flat": 8693,
      "....": 8694,
      "Nic": 8695,
      "letters": 8696,
      "electrons": 8697,
      "rier": 8698,
      "Men": 8699,
      "Bush": 8700,
      "ranges": 8701,
      "Lit": 8702,
      "Human": 8703,
      "eld": 8704,
      "stret": 8705,
      "looks": 8706,
      "concentr": 8707,
      "Social": 8708,
      "medicine": 8709,
      "boundaries": 8710,
      "politics": 8711,
      "Turkey": 8712,
      "Extract": 8713,
      "aired": 8714,
      "copies": 8715,
      "Ann": 8716,
      "Otto": 8717,
      "costs": 8718,
      "singles": 8719,
      "earch": 8720,
      "itude": 8721,
      "mad": 8722,
      "performing": 8723,
      "ficiency": 8724,
      "relationships": 8725,
      "presidential": 8726,
      "split": 8727,
      "scene": 8728,
      "profit": 8729,
      "Speech": 8730,
      "pretty": 8731,
      "tributes": 8732,
      "considering": 8733,
      "advantage": 8734,
      "brary": 8735,
      "polic": 8736,
      "repl": 8737,
      "viruses": 8738,
      "Govern": 8739,
      "72": 8740,
      "(-": 8741,
      "coordin": 8742,
      "ausible": 8743,
      "crime": 8744,
      "84": 8745,
      "professor": 8746,
      "crops": 8747,
      "anks": 8748,
      "interpret": 8749,
      "ounder": 8750,
      "Foot": 8751,
      "mixed": 8752,
      "PR": 8753,
      "opening": 8754,
      "Festival": 8755,
      "anecdote": 8756,
      "join": 8757,
      "warming": 8758,
      "kilome": 8759,
      "joint": 8760,
      "vania": 8761,
      "anes": 8762,
      "paralle": 8763,
      "roughly": 8764,
      "premi": 8765,
      "entails": 8766,
      "lets": 8767,
      "Massachusetts": 8768,
      "Corpor": 8769,
      "mol": 8770,
      "ride": 8771,
      "Martin": 8772,
      "architecture": 8773,
      "ulated": 8774,
      "partner": 8775,
      "selection": 8776,
      "ansion": 8777,
      "Song": 8778,
      "jobs": 8779,
      "illa": 8780,
      "discussed": 8781,
      "powers": 8782,
      "shap": 8783,
      "apped": 8784,
      "Dom": 8785,
      "decades": 8786,
      "Jeff": 8787,
      "Dar": 8788,
      "org": 8789,
      "foods": 8790,
      "notic": 8791,
      "organic": 8792,
      "slight": 8793,
      "ola": 8794,
      "semantic": 8795,
      "reedom": 8796,
      "Tele": 8797,
      "organized": 8798,
      "150": 8799,
      "Another": 8800,
      "induced": 8801,
      "Pers": 8802,
      "Sen": 8803,
      "route": 8804,
      "prog": 8805,
      "Using": 8806,
      "dark": 8807,
      "failure": 8808,
      "aller": 8809,
      "sip": 8810,
      "essential": 8811,
      "proto": 8812,
      "emphas": 8813,
      "awarded": 8814,
      "posts": 8815,
      "otes": 8816,
      "PlayStation": 8817,
      "existing": 8818,
      "Directed": 8819,
      "1930": 8820,
      "kinetic": 8821,
      "politician": 8822,
      "blank": 8823,
      "Region": 8824,
      "uous": 8825,
      "vas": 8826,
      "\";": 8827,
      "Greater": 8828,
      "jump": 8829,
      "aggreg": 8830,
      "Revolution": 8831,
      "attended": 8832,
      "1975": 8833,
      "inher": 8834,
      "FI": 8835,
      "hydr": 8836,
      "skills": 8837,
      "wait": 8838,
      "ranked": 8839,
      "carried": 8840,
      "Ly": 8841,
      "Before": 8842,
      "isher": 8843,
      "marine": 8844,
      "idi": 8845,
      "fine": 8846,
      "headquarters": 8847,
      "Mos": 8848,
      "rants": 8849,
      "ek": 8850,
      "iring": 8851,
      "ED": 8852,
      "biological": 8853,
      "walk": 8854,
      "contrad": 8855,
      "senior": 8856,
      "percentage": 8857,
      "arts": 8858,
      "Up": 8859,
      "Mah": 8860,
      "Cari": 8861,
      "Dy": 8862,
      "Bul": 8863,
      "fellow": 8864,
      "topics": 8865,
      "syndrome": 8866,
      "udes": 8867,
      "aspect": 8868,
      "Games": 8869,
      "1990s": 8870,
      "drin": 8871,
      "lingu": 8872,
      "shall": 8873,
      "oth": 8874,
      "Treat": 8875,
      "thur": 8876,
      "opera": 8877,
      "Ry": 8878,
      "Sever": 8879,
      "Hong": 8880,
      "fits": 8881,
      "von": 8882,
      "substance": 8883,
      "conce": 8884,
      "Lee": 8885,
      "cab": 8886,
      "ogy": 8887,
      "therapy": 8888,
      "mond": 8889,
      "Republicans": 8890,
      "Hint": 8891,
      "Arts": 8892,
      "herself": 8893,
      "mony": 8894,
      "denoting": 8895,
      "adapt": 8896,
      "uration": 8897,
      "96": 8898,
      "lose": 8899,
      "Abuse": 8900,
      "1986": 8901,
      "employe": 8902,
      "sufficient": 8903,
      "norm": 8904,
      "ifying": 8905,
      "characterized": 8906,
      "electrical": 8907,
      "mathematics": 8908,
      "troops": 8909,
      "Log": 8910,
      "myth": 8911,
      "responses": 8912,
      "Afghanistan": 8913,
      "targets": 8914,
      "acce": 8915,
      "tail": 8916,
      "vessel": 8917,
      "riter": 8918,
      "department": 8919,
      "actual": 8920,
      "perial": 8921,
      "neur": 8922,
      "producing": 8923,
      "Hours": 8924,
      "ching": 8925,
      "ulate": 8926,
      "conserv": 8927,
      "titled": 8928,
      "):": 8929,
      "eda": 8930,
      "Francisco": 8931,
      "rub": 8932,
      "hate": 8933,
      "rooms": 8934,
      "Addition": 8935,
      "audience": 8936,
      "Civil": 8937,
      "Len": 8938,
      "Electr": 8939,
      "edge": 8940,
      "extended": 8941,
      "consistent": 8942,
      "Inc": 8943,
      "logic": 8944,
      "improv": 8945,
      "vocals": 8946,
      "sensi": 8947,
      "limit": 8948,
      "Pop": 8949,
      "styles": 8950,
      "Clar": 8951,
      "survival": 8952,
      "girls": 8953,
      "Austria": 8954,
      "unders": 8955,
      "abbreviated": 8956,
      "urally": 8957,
      "peace": 8958,
      "BM": 8959,
      "dollar": 8960,
      "mistry": 8961,
      "stable": 8962,
      "82": 8963,
      "message": 8964,
      "alphabets": 8965,
      "iet": 8966,
      "Sus": 8967,
      "biggest": 8968,
      "huge": 8969,
      "ighter": 8970,
      "nearby": 8971,
      "membr": 8972,
      "drugs": 8973,
      "Tha": 8974,
      "hes": 8975,
      "feelings": 8976,
      "prominent": 8977,
      "amounts": 8978,
      "ni": 8979,
      "vie": 8980,
      "rhyth": 8981,
      "block": 8982,
      "Chi": 8983,
      "sites": 8984,
      "historic": 8985,
      "Def": 8986,
      "comprising": 8987,
      "Ko": 8988,
      "idae": 8989,
      "preced": 8990,
      "antic": 8991,
      "Life": 8992,
      "Home": 8993,
      "infr": 8994,
      "encing": 8995,
      "sper": 8996,
      "recept": 8997,
      "strateg": 8998,
      "Xbox": 8999,
      "flowers": 9000,
      "gry": 9001,
      "jective": 9002,
      "income": 9003,
      "changing": 9004,
      "provinces": 9005,
      "promis": 9006,
      "perfect": 9007,
      "concise": 9008,
      "propos": 9009,
      "agrees": 9010,
      "ension": 9011,
      "Win": 9012,
      "Gen": 9013,
      "beautiful": 9014,
      "reports": 9015,
      "Arthur": 9016,
      "Road": 9017,
      "hill": 9018,
      "Spr": 9019,
      "ansas": 9020,
      "immigration": 9021,
      "session": 9022,
      "phenomen": 9023,
      "94": 9024,
      "advan": 9025,
      "injury": 9026,
      "Gar": 9027,
      "kins": 9028,
      "formally": 9029,
      "solar": 9030,
      "gens": 9031,
      "safety": 9032,
      "tivity": 9033,
      "passeng": 9034,
      "Emperor": 9035,
      "rs": 9036,
      "Daniel": 9037,
      "assum": 9038,
      "lyrics": 9039,
      "compare": 9040,
      "planning": 9041,
      "deliver": 9042,
      "produces": 9043,
      "eco": 9044,
      "trou": 9045,
      "insects": 9046,
      "definitions": 9047,
      "zing": 9048,
      "extr": 9049,
      "engineering": 9050,
      "flower": 9051,
      "Slo": 9052,
      "devices": 9053,
      "component": 9054,
      "hero": 9055,
      "cerem": 9056,
      "Carib": 9057,
      "lab": 9058,
      "Sa": 9059,
      "Mu": 9060,
      "hope": 9061,
      "vs": 9062,
      "vehicle": 9063,
      "borough": 9064,
      "thetic": 9065,
      "basketball": 9066,
      "unk": 9067,
      "pantry": 9068,
      "accoun": 9069,
      "bike": 9070,
      "nThe": 9071,
      "1985": 9072,
      "ione": 9073,
      "respiratory": 9074,
      "1987": 9075,
      "sac": 9076,
      "perhaps": 9077,
      "Ox": 9078,
      "toxic": 9079,
      "awards": 9080,
      "affair": 9081,
      "Denmark": 9082,
      "Federal": 9083,
      "slowly": 9084,
      "measures": 9085,
      "cler": 9086,
      "\",\"": 9087,
      "fly": 9088,
      "bomb": 9089,
      "1976": 9090,
      "enzy": 9091,
      "membrane": 9092,
      "roots": 9093,
      "confirmed": 9094,
      "minute": 9095,
      "ruled": 9096,
      "founder": 9097,
      "san": 9098,
      "gery": 9099,
      "Bang": 9100,
      "journey": 9101,
      "74": 9102,
      "Gal": 9103,
      "images": 9104,
      "Armen": 9105,
      "Pennsyl": 9106,
      "?).": 9107,
      "invent": 9108,
      "dan": 9109,
      "tracks": 9110,
      "Navy": 9111,
      "sharing": 9112,
      "inno": 9113,
      "Tour": 9114,
      "pra": 9115,
      "explor": 9116,
      "horse": 9117,
      "creates": 9118,
      "1974": 9119,
      "closing": 9120,
      "ji": 9121,
      "independence": 9122,
      "Israel": 9123,
      "fertili": 9124,
      "nitrogen": 9125,
      "CL": 9126,
      "Commonwealth": 9127,
      "controver": 9128,
      "rug": 9129,
      "perman": 9130,
      "governor": 9131,
      "expectations": 9132,
      "graduate": 9133,
      "bing": 9134,
      "Gir": 9135,
      "Roc": 9136,
      "haz": 9137,
      "Government": 9138,
      "azi": 9139,
      "Youn": 9140,
      "cellular": 9141,
      "Caribbean": 9142,
      "Lar": 9143,
      "Situ": 9144,
      "stein": 9145,
      "ET": 9146,
      "Uk": 9147,
      "intention": 9148,
      "covering": 9149,
      "comma": 9150,
      "honor": 9151,
      "Sar": 9152,
      "shoot": 9153,
      "settlement": 9154,
      "helping": 9155,
      "invas": 9156,
      "throw": 9157,
      "disci": 9158,
      "geographic": 9159,
      "1979": 9160,
      "iversal": 9161,
      "diction": 9162,
      "taught": 9163,
      "reaching": 9164,
      "Museum": 9165,
      "oe": 9166,
      "Further": 9167,
      "Camp": 9168,
      "arrived": 9169,
      "nur": 9170,
      "1970": 9171,
      "Having": 9172,
      "Today": 9173,
      "easier": 9174,
      "channel": 9175,
      "Nat": 9176,
      "pursu": 9177,
      "ternal": 9178,
      "broke": 9179,
      "equival": 9180,
      "mice": 9181,
      "sale": 9182,
      "iar": 9183,
      "1972": 9184,
      "Rh": 9185,
      "revolution": 9186,
      "obtained": 9187,
      "explained": 9188,
      "tration": 9189,
      "Little": 9190,
      "cine": 9191,
      "feat": 9192,
      "singing": 9193,
      "%.": 9194,
      "protection": 9195,
      "stronger": 9196,
      "simplified": 9197,
      "glac": 9198,
      "Billboard": 9199,
      "els": 9200,
      "contribution": 9201,
      "Jacob": 9202,
      "Cel": 9203,
      "Prof": 9204,
      "ANT": 9205,
      "birthday": 9206,
      "Area": 9207,
      "ordered": 9208,
      "gro": 9209,
      "grade": 9210,
      "enna": 9211,
      "91": 9212,
      "rison": 9213,
      "Corporation": 9214,
      "controls": 9215,
      "exists": 9216,
      "fields": 9217,
      "autonom": 9218,
      "inois": 9219,
      "Malay": 9220,
      "Radio": 9221,
      "Prime": 9222,
      "theatre": 9223,
      "Pennsylvania": 9224,
      "valu": 9225,
      "pregn": 9226,
      "nice": 9227,
      "operative": 9228,
      "principal": 9229,
      "magnetic": 9230,
      "discuss": 9231,
      "exposed": 9232,
      "Gram": 9233,
      "powerful": 9234,
      "populations": 9235,
      "Indonesia": 9236,
      "Brad": 9237,
      "arent": 9238,
      "prime": 9239,
      "earned": 9240,
      "knows": 9241,
      "organizations": 9242,
      "picture": 9243,
      "elev": 9244,
      "seas": 9245,
      "Football": 9246,
      "communities": 9247,
      "prepar": 9248,
      "jur": 9249,
      "components": 9250,
      "Writ": 9251,
      "adding": 9252,
      "Jay": 9253,
      "wid": 9254,
      "blog": 9255,
      "Oper": 9256,
      "bag": 9257,
      "Vol": 9258,
      "cot": 9259,
      "jth": 9260,
      "applying": 9261,
      "posure": 9262,
      "commission": 9263,
      "decline": 9264,
      "depos": 9265,
      "BBC": 9266,
      "rose": 9267,
      "favorite": 9268,
      "Club": 9269,
      "computers": 9270,
      "ount": 9271,
      "recordings": 9272,
      "ijing": 9273,
      "fro": 9274,
      "illness": 9275,
      "mechanical": 9276,
      "tray": 9277,
      "oured": 9278,
      "depart": 9279,
      "Mont": 9280,
      "wen": 9281,
      "desc": 9282,
      "egg": 9283,
      "Athen": 9284,
      "holonym": 9285,
      "Finally": 9286,
      "Ukrain": 9287,
      "marks": 9288,
      "andon": 9289,
      "cher": 9290,
      "knowing": 9291,
      "Williams": 9292,
      "cyto": 9293,
      "Squ": 9294,
      "Parliament": 9295,
      "_room": 9296,
      "euro": 9297,
      "1981": 9298,
      ".).": 9299,
      "1982": 9300,
      "circum": 9301,
      "pil": 9302,
      "recalled": 9303,
      "extin": 9304,
      "texts": 9305,
      "visited": 9306,
      "zen": 9307,
      "7th": 9308,
      "funding": 9309,
      "akh": 9310,
      "launched": 9311,
      "championship": 9312,
      "stitution": 9313,
      "Beijing": 9314,
      "probability": 9315,
      "jan": 9316,
      "beat": 9317,
      "Greg": 9318,
      "fran": 9319,
      "Las": 9320,
      "institutions": 9321,
      "Four": 9322,
      "budget": 9323,
      "Illinois": 9324,
      "Head": 9325,
      "inea": 9326,
      "attend": 9327,
      "itive": 9328,
      "RE": 9329,
      "arian": 9330,
      "lywood": 9331,
      "6th": 9332,
      "personality": 9333,
      "bled": 9334,
      "itness": 9335,
      "influential": 9336,
      "boys": 9337,
      "opinion": 9338,
      "policies": 9339,
      "remove": 9340,
      "120": 9341,
      "1971": 9342,
      "hotel": 9343,
      "hang": 9344,
      "subsequent": 9345,
      "ologist": 9346,
      "Hann": 9347,
      "planned": 9348,
      "ceans": 9349,
      "owner": 9350,
      "atomic": 9351,
      "Ind": 9352,
      "brac": 9353,
      "plausible": 9354,
      "eper": 9355,
      "Research": 9356,
      "Cambridge": 9357,
      "//": 9358,
      "Solution": 9359,
      "satell": 9360,
      "fing": 9361,
      "diplom": 9362,
      "Times": 9363,
      "fictional": 9364,
      "inver": 9365,
      "attor": 9366,
      "medieval": 9367,
      "restric": 9368,
      "Mun": 9369,
      "reservation": 9370,
      "Por": 9371,
      "step1": 9372,
      "urer": 9373,
      "gender": 9374,
      "apparent": 9375,
      "step2": 9376,
      "adel": 9377,
      "Fox": 9378,
      "defense": 9379,
      "ram": 9380,
      "lists": 9381,
      "bird": 9382,
      "spending": 9383,
      "fails": 9384,
      "Glo": 9385,
      "airport": 9386,
      "summar": 9387,
      "rupt": 9388,
      "attempts": 9389,
      "existence": 9390,
      "arrest": 9391,
      "Tar": 9392,
      "Hind": 9393,
      "umber": 9394,
      "Steve": 9395,
      "Trade": 9396,
      "],": 9397,
      "nucleus": 9398,
      "Kent": 9399,
      "accident": 9400,
      "selfish": 9401,
      "seventh": 9402,
      "MS": 9403,
      "myself": 9404,
      "grammat": 9405,
      "Beat": 9406,
      "networks": 9407,
      "1920": 9408,
      "orient": 9409,
      "Fam": 9410,
      "Moo": 9411,
      "physic": 9412,
      "sembly": 9413,
      "thick": 9414,
      "Gil": 9415,
      "Ottoman": 9416,
      "auth": 9417,
      "Bern": 9418,
      "Title": 9419,
      "Nep": 9420,
      "Johnny": 9421,
      "Manchester": 9422,
      "Sure": 9423,
      "mm": 9424,
      "touchdown": 9425,
      "Bol": 9426,
      "graphic": 9427,
      "shore": 9428,
      "TS": 9429,
      "Nev": 9430,
      "drink": 9431,
      "rout": 9432,
      "discipl": 9433,
      "arms": 9434,
      "settled": 9435,
      "AP": 9436,
      "Lord": 9437,
      "Arctic": 9438,
      "vast": 9439,
      "Die": 9440,
      "Kel": 9441,
      "biology": 9442,
      "narrow": 9443,
      "involving": 9444,
      "flows": 9445,
      "irt": 9446,
      "childhood": 9447,
      "calling": 9448,
      "physics": 9449,
      "bottle": 9450,
      "dat": 9451,
      "oral": 9452,
      "thousands": 9453,
      "archipelago": 9454,
      "Stone": 9455,
      "RI": 9456,
      "Health": 9457,
      "See": 9458,
      "broken": 9459,
      "icide": 9460,
      "zero": 9461,
      "Ari": 9462,
      "aka": 9463,
      "critics": 9464,
      "extract": 9465,
      "vised": 9466,
      "phal": 9467,
      "feels": 9468,
      "falls": 9469,
      "aware": 9470,
      "boo": 9471,
      "bac": 9472,
      "virt": 9473,
      "escape": 9474,
      "surgery": 9475,
      "forests": 9476,
      "stuff": 9477,
      "inum": 9478,
      "criter": 9479,
      "parallel": 9480,
      "quote": 9481,
      "bid": 9482,
      "tip": 9483,
      "visible": 9484,
      "periods": 9485,
      "inner": 9486,
      "exposure": 9487,
      "equipment": 9488,
      "ishop": 9489,
      "%,": 9490,
      "1983": 9491,
      "granted": 9492,
      "Ev": 9493,
      "nutrients": 9494,
      "62": 9495,
      "semi": 9496,
      "lahom": 9497,
      "affic": 9498,
      "scientist": 9499,
      "fungi": 9500,
      "1969": 9501,
      "gian": 9502,
      "advanced": 9503,
      "happening": 9504,
      "1988": 9505,
      "unch": 9506,
      "Ron": 9507,
      "Gra": 9508,
      "collected": 9509,
      "Lith": 9510,
      "Syd": 9511,
      "abilities": 9512,
      "Way": 9513,
      "angle": 9514,
      "dynam": 9515,
      "reci": 9516,
      "finds": 9517,
      "implement": 9518,
      "brothers": 9519,
      "seasons": 9520,
      "Islamic": 9521,
      "Blue": 9522,
      "Oklahom": 9523,
      "Budd": 9524,
      "buc": 9525,
      "Young": 9526,
      "frame": 9527,
      "thank": 9528,
      "1984": 9529,
      "chemistry": 9530,
      "Additionally": 9531,
      "projects": 9532,
      "arti": 9533,
      "improved": 9534,
      "MP": 9535,
      "icate": 9536,
      "lock": 9537,
      "itzerland": 9538,
      "OS": 9539,
      "soldi": 9540,
      "scored": 9541,
      "possibly": 9542,
      "600": 9543,
      "About": 9544,
      "extracted": 9545,
      "obvious": 9546,
      "install": 9547,
      "theme": 9548,
      "ambig": 9549,
      "Edward": 9550,
      "sad": 9551,
      "Tony": 9552,
      "stored": 9553,
      "managed": 9554,
      "Harry": 9555,
      "ptions": 9556,
      "bourne": 9557,
      "occupation": 9558,
      "victim": 9559,
      "compounds": 9560,
      "teaching": 9561,
      "usual": 9562,
      "Victoria": 9563,
      "acted": 9564,
      "drummer": 9565,
      "explan": 9566,
      "featuring": 9567,
      "Belgium": 9568,
      "lots": 9569,
      ".”": 9570,
      "remo": 9571,
      "1978": 9572,
      "skill": 9573,
      "dad": 9574,
      "1968": 9575,
      "18th": 9576,
      "arrange": 9577,
      "compos": 9578,
      "twenty": 9579,
      "sequences": 9580,
      "vehicles": 9581,
      "predict": 9582,
      "pton": 9583,
      "molecular": 9584,
      "comfort": 9585,
      "discussing": 9586,
      "tension": 9587,
      "Emily": 9588,
      "Instead": 9589,
      "alleg": 9590,
      "truth": 9591,
      "victory": 9592,
      "dem": 9593,
      "compound": 9594,
      "practices": 9595,
      "ura": 9596,
      "supposed": 9597,
      "turns": 9598,
      "conveys": 9599,
      "Bir": 9600,
      "fant": 9601,
      "Age": 9602,
      "seeing": 9603,
      "technique": 9604,
      "figures": 9605,
      "calculation": 9606,
      "Cre": 9607,
      "contributed": 9608,
      "awa": 9609,
      "weap": 9610,
      "umption": 9611,
      "alongside": 9612,
      "philosophy": 9613,
      "rig": 9614,
      "aste": 9615,
      "samples": 9616,
      "Mot": 9617,
      "Ell": 9618,
      "Find": 9619,
      "writers": 9620,
      "thinks": 9621,
      "mine": 9622,
      "usage": 9623,
      "Ray": 9624,
      "container": 9625,
      "Liber": 9626,
      "Get": 9627,
      "1967": 9628,
      "HIV": 9629,
      "Friday": 9630,
      "dramatic": 9631,
      "grown": 9632,
      "Bin": 9633,
      "PM": 9634,
      "Such": 9635,
      "Id": 9636,
      "expressing": 9637,
      "jac": 9638,
      "salt": 9639,
      "Carolina": 9640,
      "aud": 9641,
      "Stan": 9642,
      "Bank": 9643,
      "pup": 9644,
      "advent": 9645,
      "Census": 9646,
      "Olympics": 9647,
      "cm": 9648,
      "conqu": 9649,
      "Bi": 9650,
      "stair": 9651,
      "homes": 9652,
      "issued": 9653,
      "wine": 9654,
      "retain": 9655,
      "traffic": 9656,
      "serum": 9657,
      "newspaper": 9658,
      "ato": 9659,
      "Tibet": 9660,
      "acceptable": 9661,
      "creative": 9662,
      "tone": 9663,
      "Missis": 9664,
      "Benj": 9665,
      "flag": 9666,
      "Polish": 9667,
      "rev": 9668,
      "err": 9669,
      "agency": 9670,
      "website": 9671,
      "lights": 9672,
      "lasted": 9673,
      "perce": 9674,
      "Dor": 9675,
      "Baltic": 9676,
      "mud": 9677,
      "charged": 9678,
      "Moore": 9679,
      "Oklahoma": 9680,
      "Ash": 9681,
      "Cle": 9682,
      "apartment": 9683,
      "acids": 9684,
      "inton": 9685,
      "Secretary": 9686,
      "rural": 9687,
      "explo": 9688,
      "subs": 9689,
      "minim": 9690,
      "towns": 9691,
      "Switzerland": 9692,
      "chronic": 9693,
      "dress": 9694,
      "wash": 9695,
      "Several": 9696,
      "relates": 9697,
      "arring": 9698,
      "gments": 9699,
      "anth": 9700,
      "bear": 9701,
      ",'": 9702,
      "titude": 9703,
      "notes": 9704,
      "Fred": 9705,
      "Jane": 9706,
      "column": 9707,
      "genres": 9708,
      "zes": 9709,
      "walls": 9710,
      "astro": 9711,
      "Similar": 9712,
      "Through": 9713,
      "Wars": 9714,
      "abuse": 9715,
      "affiliation": 9716,
      "Christmas": 9717,
      "92": 9718,
      "Tam": 9719,
      "fundam": 9720,
      "surpris": 9721,
      "Year": 9722,
      "Tai": 9723,
      "outer": 9724,
      "lowest": 9725,
      "experimental": 9726,
      "las": 9727,
      "PersonX": 9728,
      "('": 9729,
      "disc": 9730,
      "bigger": 9731,
      "Town": 9732,
      "ske": 9733,
      "8th": 9734,
      "covery": 9735,
      "Nap": 9736,
      "reme": 9737,
      "increasingly": 9738,
      "destroyed": 9739,
      "isto": 9740,
      "infected": 9741,
      "alter": 9742,
      "expansion": 9743,
      "breaking": 9744,
      "secre": 9745,
      "05": 9746,
      "housing": 9747,
      "Respon": 9748,
      "Mississip": 9749,
      "receiving": 9750,
      "peninsula": 9751,
      "Windows": 9752,
      "difficul": 9753,
      "elections": 9754,
      "rob": 9755,
      "wet": 9756,
      "Moon": 9757,
      "Guinea": 9758,
      "Histor": 9759,
      "cris": 9760,
      "circul": 9761,
      "electro": 9762,
      "suggesting": 9763,
      "marke": 9764,
      "encom": 9765,
      "brid": 9766,
      "releases": 9767,
      "NOT": 9768,
      "challenges": 9769,
      "meters": 9770,
      "save": 9771,
      "fixed": 9772,
      "planets": 9773,
      "2018": 9774,
      "Enti": 9775,
      "teachers": 9776,
      "Pict": 9777,
      "Once": 9778,
      "Bab": 9779,
      "wear": 9780,
      "normally": 9781,
      "zh": 9782,
      "reign": 9783,
      "Lis": 9784,
      "Rel": 9785,
      "contemporary": 9786,
      "Southeast": 9787,
      "Kr": 9788,
      "oceans": 9789,
      "literally": 9790,
      "trust": 9791,
      "lav": 9792,
      "1964": 9793,
      "VI": 9794,
      "desert": 9795,
      "performances": 9796,
      "thy": 9797,
      "views": 9798,
      "advert": 9799,
      "classification": 9800,
      "operated": 9801,
      "asc": 9802,
      "Division": 9803,
      "decade": 9804,
      "crop": 9805,
      "conventional": 9806,
      "telling": 9807,
      "modified": 9808,
      "tub": 9809,
      "rapidly": 9810,
      "appreci": 9811,
      "losing": 9812,
      "violence": 9813,
      "kg": 9814,
      "Studios": 9815,
      "sees": 9816,
      "cultures": 9817,
      "scholar": 9818,
      "Portugu": 9819,
      "Benjamin": 9820,
      "Low": 9821,
      "greatly": 9822,
      "calculate": 9823,
      "willing": 9824,
      "investigate": 9825,
      "orchestra": 9826,
      "Sug": 9827,
      "depic": 9828,
      "eighth": 9829,
      "equivalent": 9830,
      "sunlight": 9831,
      "showing": 9832,
      "bottom": 9833,
      "substanti": 9834,
      "moon": 9835,
      "hem": 9836,
      "wedding": 9837,
      "urs": 9838,
      "unable": 9839,
      "page": 9840,
      "Show": 9841,
      "loy": 9842,
      "aer": 9843,
      "participant": 9844,
      "possess": 9845,
      "1966": 9846,
      "occupied": 9847,
      "Lithuan": 9848,
      "shar": 9849,
      "substances": 9850,
      "unitary": 9851,
      "maker": 9852,
      "Ag": 9853,
      "Eve": 9854,
      "Portuguese": 9855,
      "passages": 9856,
      "successfully": 9857,
      "neighborhood": 9858,
      "spirit": 9859,
      "cket": 9860,
      "criteria": 9861,
      "meant": 9862,
      "carto": 9863,
      "Hot": 9864,
      "ASSI": 9865,
      "festival": 9866,
      "Mexican": 9867,
      "Located": 9868,
      "enve": 9869,
      "Sunday": 9870,
      "originated": 9871,
      "porters": 9872,
      "restaurants": 9873,
      "pig": 9874,
      "conference": 9875,
      "sitting": 9876,
      "episode": 9877,
      "CC": 9878,
      "rh": 9879,
      "Turkish": 9880,
      "reduction": 9881,
      "ethical": 9882,
      "icial": 9883,
      "Viet": 9884,
      "Governor": 9885,
      "schedul": 9886,
      "owners": 9887,
      "Alban": 9888,
      "Cat": 9889,
      "apt": 9890,
      "chlor": 9891,
      "reproduction": 9892,
      "fighting": 9893,
      "orbit": 9894,
      "Mississippi": 9895,
      "attach": 9896,
      "guide": 9897,
      "trave": 9898,
      "alty": 9899,
      "sust": 9900,
      "display": 9901,
      "spin": 9902,
      "solely": 9903,
      "geography": 9904,
      "ASSIST": 9905,
      "keyword": 9906,
      "pure": 9907,
      "Euras": 9908,
      "gang": 9909,
      "juris": 9910,
      "facing": 9911,
      "straight": 9912,
      "MA": 9913,
      "genic": 9914,
      "etro": 9915,
      "ASSISTANT": 9916,
      "Bus": 9917,
      "iland": 9918,
      "ardi": 9919,
      "Free": 9920,
      "DP": 9921,
      "velength": 9922,
      "spot": 9923,
      "concerned": 9924,
      "sample": 9925,
      "ultimately": 9926,
      "esh": 9927,
      "envelope": 9928,
      "Gall": 9929,
      "citizen": 9930,
      "densely": 9931,
      "choo": 9932,
      "pictures": 9933,
      "intelligence": 9934,
      "noise": 9935,
      "denoted": 9936,
      "stock": 9937,
      "IS": 9938,
      "TA": 9939,
      "expanded": 9940,
      "agers": 9941,
      "Techn": 9942,
      "stro": 9943,
      "tial": 9944,
      "Py": 9945,
      "oversimplified": 9946,
      "locked": 9947,
      "stan": 9948,
      "indeed": 9949,
      "Metropolitan": 9950,
      "gap": 9951,
      "Province": 9952,
      "Force": 9953,
      "1977": 9954,
      "castle": 9955,
      "experiments": 9956,
      "couldn": 9957,
      "cious": 9958,
      "external": 9959,
      "kan": 9960,
      "Fort": 9961,
      "sav": 9962,
      "coron": 9963,
      "evolved": 9964,
      "acceler": 9965,
      "counties": 9966,
      "intersection": 9967,
      "audio": 9968,
      "History": 9969,
      "Dev": 9970,
      "nee": 9971,
      "ray": 9972,
      "empire": 9973,
      "stadium": 9974,
      "application": 9975,
      "thedr": 9976,
      "tropical": 9977,
      "subsequently": 9978,
      "emy": 9979,
      "depends": 9980,
      "fans": 9981,
      "ads": 9982,
      "Jr": 9983,
      "fortun": 9984,
      "Jews": 9985,
      "keyboard": 9986,
      "earliest": 9987,
      "tified": 9988,
      "banks": 9989,
      "wavelength": 9990,
      "universe": 9991,
      "fundamental": 9992,
      "Sydney": 9993,
      "Last": 9994,
      "Si": 9995,
      "WW": 9996,
      "popularity": 9997,
      "Michigan": 9998,
      "captured": 9999,
      "gon": 10000,
      "discovery": 10001,
      "}.": 10002,
      "revers": 10003,
      "urb": 10004,
      "ucky": 10005,
      "Major": 10006,
      "plasma": 10007,
      "800": 10008,
      "News": 10009,
      "mail": 10010,
      "infections": 10011,
      "phia": 10012,
      "typical": 10013,
      "besides": 10014,
      "abandon": 10015,
      "neuro": 10016,
      "corresponding": 10017,
      "phere": 10018,
      "AF": 10019,
      "Make": 10020,
      "Seattle": 10021,
      "roads": 10022,
      "Beng": 10023,
      "advice": 10024,
      "romag": 10025,
      "rows": 10026,
      "females": 10027,
      "governments": 10028,
      "debt": 10029,
      "?,": 10030,
      "walking": 10031,
      "Jean": 10032,
      "blues": 10033,
      "Croat": 10034,
      "otic": 10035,
      "Charlot": 10036,
      "factory": 10037,
      "metres": 10038,
      "pm": 10039,
      "slower": 10040,
      "Airport": 10041,
      "progress": 10042,
      "nament": 10043,
      "1973": 10044,
      "Color": 10045,
      "focuses": 10046,
      "supplies": 10047,
      "1965": 10048,
      "arith": 10049,
      "camping": 10050,
      "trained": 10051,
      "Commit": 10052,
      "hypothe": 10053,
      "Mean": 10054,
      "comparison": 10055,
      "understood": 10056,
      "dropped": 10057,
      "Treaty": 10058,
      "Mol": 10059,
      "breed": 10060,
      "habitat": 10061,
      "loved": 10062,
      "credit": 10063,
      "icken": 10064,
      "standards": 10065,
      "cooking": 10066,
      "guy": 10067,
      "tested": 10068,
      "bling": 10069,
      "arter": 10070,
      "steel": 10071,
      "Organ": 10072,
      "pitch": 10073,
      "framing": 10074,
      "aya": 10075,
      "plus": 10076,
      "Mason": 10077,
      "hepat": 10078,
      "grapher": 10079,
      "Golden": 10080,
      "united": 10081,
      "ticket": 10082,
      "slightly": 10083,
      "graphics": 10084,
      "mph": 10085,
      "ambi": 10086,
      "Hon": 10087,
      "...\"": 10088,
      "employed": 10089,
      "oon": 10090,
      "Satur": 10091,
      "Tal": 10092,
      "12th": 10093,
      "copy": 10094,
      "editor": 10095,
      "efficient": 10096,
      "ologists": 10097,
      "Melbourne": 10098,
      "likes": 10099,
      "offspring": 10100,
      "signal": 10101,
      "inary": 10102,
      "Gor": 10103,
      "Sud": 10104,
      "amber": 10105,
      "traditionally": 10106,
      "heavily": 10107,
      "dden": 10108,
      "constructed": 10109,
      "survey": 10110,
      "Oliver": 10111,
      "Origin": 10112,
      "Clinton": 10113,
      "Perform": 10114,
      "parliamentary": 10115,
      "Da": 10116,
      "iations": 10117,
      "Person1": 10118,
      "Duke": 10119,
      "pump": 10120,
      "n5": 10121,
      "proceed": 10122,
      "Vietnam": 10123,
      "usions": 10124,
      "ani": 10125,
      "manner": 10126,
      "accompl": 10127,
      "founding": 10128,
      "yourself": 10129,
      "paintings": 10130,
      "renewable": 10131,
      "crust": 10132,
      "emerged": 10133,
      "adelphia": 10134,
      "sils": 10135,
      "plastic": 10136,
      "Was": 10137,
      "inhibit": 10138,
      "Summer": 10139,
      "responsib": 10140,
      "dox": 10141,
      "uted": 10142,
      "targeted": 10143,
      "Owen": 10144,
      "thic": 10145,
      "continuous": 10146,
      "pit": 10147,
      "Early": 10148,
      "9th": 10149,
      "nickn": 10150,
      "Scand": 10151,
      "Entity": 10152,
      "Tay": 10153,
      "sons": 10154,
      "distric": 10155,
      "Bron": 10156,
      "Gi": 10157,
      "iers": 10158,
      "betes": 10159,
      "mixt": 10160,
      "Charlotte": 10161,
      "gly": 10162,
      "optim": 10163,
      "stating": 10164,
      "pH": 10165,
      "incorporated": 10166,
      "14th": 10167,
      "Portugal": 10168,
      "justice": 10169,
[...]
